101011
1111111111011001
1111111111111101
101010
1111111111111101
1111111111100110
111
1
1111111111111101
1011
11
101
0
1111111110101110
1111111111001100
1000111
11111
1111111111011111
1111111111111000
1111111111111010
1111111111100000
1111111111011001
1111111111110010
11111
10010
100101
1111111110111111
1111111111010100
1001
1111111111100001
1111111111100010
1111111111110110
1111111111100101
1111111111110111
1111111111111010
11011
100000
1111111111110001
11
10000100
11111011
10100010
11110
1111111110100101
1111111101110110
1111111111100011
101
1000010
1110111
111
11001
1111111111001001
1110
1111111110110110
100101
100011
1101
1111111111110010
111010
1111111111011011
1111111111100101
0
1111111111111011
1000010
10010111
11100011
110
100110010
100011100
10100011
110101001
1000010100
1011010000
10010111110
10111110111
1110100010
110010011
10010101
110110
1111111111111010
1111111111110010
1110
11
11000
1000
1010101
1111111111100011
110000
1111111111110101
1111111001011100
1111111011100001
1111111001110011
1111111100000011
101101110
1111111011100001
1111101111011011
1111101011000001
1111111001111101
1010011100
100111010
1111111111001101
1000001011
100010011111
100101100110
10001110110
110111000
1010010
1111111110111100
100
1111111111111010
1111111111011101
1111111111100000
10
101100
111101
1111111110111010
1111111101111001
1111110001101001
1111111001100001
100010000
1111110101000011
1111111101100110
1111101100111010
1111111011101000
1111100011000110
1111101011010110
110100110
110111000
11000110101
11011001011
10011001010
100010010011
110011000011
11010000001
10010001100
111110110
111000
1111111111111100
1011110
1111111111011110
1111111111111011
1111111111110000
1111111111011011
1111111011110001
1111101111100001
1111011110010010
1111101010010010
1111100110100101
1111111001110001
11011101
1111111101101001
1111111101101010
1111100110011110
1111110110010110
101101100
1111101010100000
110101000
11101001001
100001110110
11101011010
1000101011110
101100111100
11011100111
10001001001
1111110
1111111111011000
1111111111110000
11110
1111111111101111
1111111111111110
1111111111111100
1111110111111101
1111101101001000
1111101011100100
1111010011111001
100010100
1111111010010111
1111111001001011
1110011101
100010100
1111111110101101
1111110000010100
110011
1110111111
11000110
1101010011
1111111001001010
101111000000
111100100110
101111001111
11100010000
1100000111
101001111
1110011
1110001
101100
100
1000100
11110
1111110100111101
1111100000111110
1111110110111001
1111111011011100
1111100110
111010001
1111110110011000
1111111011011001
1111111101000110
10001110001
1111110011001100
11110101
1111011100101001
1111111111010001
1111111111011110
10101011101
101110001111
110111110100
111100001001
100111100101
10101011111
1100001000
11011010
101010
1011001
1
1111111111100100
1111111110110101
1111110111010100
1111011101011111
1111111100110100
10100111011
1111111101110110
1111101110
1111110010011111
1111100000001001
10111110000
100000110
1111110011001001
1111111011110000
1111101000100011
1111011101011011
1111111001010111
1010000101
101000100101
1000001100101
111111100001
101011100110
11101011001
10010010110
1001110011
10111000
0
11011
1111111110110100
1111111101011011
1111110010111000
1111010111101101
1111110000010100
10000100
1111111111001000
10101010011
11001010110
10100011101
10010001100
1111110010010111
1111101011100100
1111011000100111
1111001010111010
1111001010010111
1111111011101110
1010011101
10111110100
1001011000011
111010011001
101001110100
11111010010
10010111101
110011011
1001111
1010100
1111111111101010
1111111110100011
1111111111001100
1111110010110011
1111101010011010
11111111
10101011010
11000101101
11000011000
1001011000
100111111
111110100
1111111000010011
1111011001000001
1111001101100000
1111011101100010
1111001100010101
1111110100100101
11111001000
101000110010
1000010110101
110100101100
10100011110
10000000100
10010011000
11001001
1111010
101110
1111111111011111
1111111111010111
1111111101011011
1111101110010111
1111110101100100
11100111
101110111
11001100111
1011001100
1111110001111000
1111101111110101
1111101100000011
1111101110101001
1111110001000101
1111011010100010
1111010101011010
11000101000
100101101000
100001110001
101001111100
11001000110
11110000111
1111111101100110
1111111101011011
1101110101
110011000
110100
1111111111001000
1111111111110111
1111111110101100
1111111101010001
1111110001100111
1111111111011011
1111110001010010
100001
1011010
1110011000
1111111001101000
1110011110
1101011
1111111000011111
100010011
1111010011011101
1111101010100101
11101100
101000010100
1111011111
100100100111
100101010001
10011000010
1111110001101010
1111110001100101
1111110110011010
1111111101110011
10001110
1111111111001010
10000
1111111111011010
1111111100101101
1111110101111111
101010
1010011
1111111100111111
100101100
1000011000
10010011
111000100
101000011
1111101111110000
1111100101111111
1111101010111000
100011
1111111010010110
10001111101
1111110100110010
1010110111
111010
1111101101001110
1111111000000100
110011001
1111110101111011
1111111000110000
1111111101111101
1111111111100111
1111111111101101
1111111111101111
1111111110000111
1111111001000011
111001111
1111111110000100
1100010010
11111110100
11100000
100010001
1111111001101001
1111010000
1111110110011010
1111111001010001
1111110110011100
1111111011011101
10101111001
1110001111
10100100110
1111101011001101
1111111010100011
1111001111110101
1111111011101101
1111110001101000
101001
1111110101010110
1111111100000011
100001
1110
1111111111101111
1111111111100010
1111111011001100
1001111010
10000110
1000100000
11100010111
1110111
1111111010110100
111110011
1111111111000110
100000011
1111100111101111
1111101000000110
1111111100011001
11110111
1111101000110100
10000111100
1111111001011111
1101110
1111110010010001
1111101010100001
1110000111
1111111001101001
1111111101010001
1111111000011110
1111111111000110
1111111111100000
1111111110111001
1111111110101000
1111111110111010
10001100
1110000011
10111110011
1111110000101010
1111101001101011
1111100001111001
1000000110
100011
110010011
1011010
1111101101000010
1111111011101011
1111110111110011
101001111010
1111101111101111
1111101111001111
1111111001100000
110000011
1111111111011011
1010001
1111100101100111
101011010
1111111101100010
1111111111111000
101110
0
1111111111011110
10011000
1111111010100100
11001100000
10001111000
0
10001011100
10101111111
10001110011
11100000110
11110010000
10011010
1111101100000001
110001001
1111111011010011
11000011
1111111010111111
1111111111100010
10010101100
1111011101101011
1111100001100000
1111101000101011
111010110
1000010001
1111111010011011
0
1011
1111111111100001
1111111111001110
1111111111010110
1111110000001010
10010000100
1100111001
10010001110
1111111101001000
1111111110011110
1111110110011011
1011110100
101000000000
11011110
1101100000
10011010111
1111111110000101
1111111001101101
101111000
11110000
1111111100010001
1111101111000010
1111110000000110
1111111110100111
10010001111
1000011
1111111101100010
1111111111000000
1111
101111
101101011
110001011
1111111110101000
100110100
100010011
111110000
10101000011
10100010
111000011
11110011100
11000001101
110010110
1111111001011001
10001001110
11011
111110
10001101
1111101110101110
1111110011011110
10100101101
1000000101
11101010
1010011011
1111111101001100
1111111110111011
1111111111100010
110
10011010
101110011
110100110
101010001
100001110
1111101100100110
1111101011000000
1001110010
1111111101000001
1111111101000010
10100000110
10001110111
1111111100011101
1111100111100110
1011001111
1111111110000100
1
1111111110110111
1111110100001001
1111101010011100
1111111011010110
11011001
1111111100100100
1000011
1111111110001100
1111111111101111
1111111111100101
1111111111000111
1111111111111100
1111111111010010
1111111110001111
1111111111010001
1000000
1111111110100111
1011000000
1111110100001110
110000100
1011010111
101110111
1000110000
10110101011
101101111
1111110010001001
1111110111001000
11010010111
1110000010
1111110000111101
10111000100
1101001100
10000010010
1100110000
11000001
1111111100001101
11011
1111111111100000
11011
1111111111011110
0
1111110111101100
1111110001001010
1111111000011010
1111111100110000
1111110011001100
1111111101101010
1111111000010111
1111111001110001
1001101001
10000101100
111000001
1111111000110010
111000
1111111110111100
1111110101100101
1111110110100111
1111111100011010
1111111010101000
1111111111011101
100111100
11001010110
111001101
1111111111111101
1111111110111111
1111111111101110
110011
0
1111111111001110
1111111011010101
1111110100100001
1111111100011100
110111000
1111101111000111
1001101111
1111111010010111
1111111010101110
1111111001111001
101001001
1111110111010011
11000111110
1111111100110011
10101101100
1111110000010101
1111100111111001
1111101000001011
1111111000010101
10101010
10111010000
10101000100
110011001
1010110
111000
111000
100001
0
1111111111001101
1111111111000101
1111111001110101
1111111000100100
1111111111001100
1111111010100001
1111111011000001
10111011
100010010
1111111100110101
100001001010
1111110100000001
1111110000101011
1101001001
1101100101
1111110100011001
1011100010
11010010
10101010100
10000101110
1101011110
1011101011
111011101
1100001
1111111111111110
1111111111101101
1001101
110011
1111111111110000
1000101
1111111101111001
1111110111101100
1111110110101111
1111110011110011
1111110100111100
1111111010000000
1111110000111001
1100010
10000001111
1111110111110111
1111110010111000
11110001
101010111
1000101000
111001111
1001001001
1000100000
100111111
10101100
101011101
10110001
1111111111111010
1111111111111010
1011
1001
1111111111100001
1111111111110001
100101
10101
1111111110100010
1111111111101010
1111111101000011
1111111011101111
1111111110100100
10001011
1111111111011110
100011001
1001111001
101101
11000110
1111111111100100
11101011
1001010101
101111011
110001111
110010101
1111000
1111111110101100
101101
1111111110101000
110101
1111111111000110
1111111111110101
1111
1111111111101111
111000
1111111111111111
1111111111010001
101110
1111111111100101
1111111111101011
11100
1111111101011101
1111111111001110
1111111111110000
1111111111101111
1111111111111011
1111111111101101
1111011
1111111111111111
101100100
111000
1111111111101100
1111111111011000
100111
1010
11000
1111111111111010
10101
1111111111110010
