1111111111010101
10
1111111111100010
1111
1111111111011110
1111111111110101
1111111111110111
111
11001
1111111111100101
0
1100
1111111111101010
11100
1111111111011000
1011
1111111111011001
1111111111001100
1111111111001101
100000
11001
1111111111101011
1010011
1111111111100011
11011
1111111111101010
100011
1111111111010110
100000
10110
1111111111111111
1111111111101100
1111111111101010
1111111111100000
1111111111101101
111001
11
1111111111101111
1101001
10011001
1111111111111010
100010
11111
101011
1111111111010101
101100
1001
11100
101000
111101
1111111111010001
1000101
0
111
1111111111100110
111
10101
1111111111110011
1
1111111111101110
1111111111011011
1111111111101000
100100
110100
10111100
101110101
111000111
1000110010
110001001
11100010
11010
1011011
111110101
11101100
1011
10111010
1011001
11101
1111111111001010
100101
10100
1111111111100100
1111111111111111
110101
11001
1101
0
1111111111111100
1110
1110
10000011
100011110
11100111
101100
1001000011
1111011000
101101
1101100
1101100011
1111000011
10110110101
1111010001
1000001101
111100011
111001010
111011011
11001111
111100
1111111111000010
1111111100011010
1111111111111011
1111111111110111
1111111111110110
1111111111110001
111100
1111111111111011
1111111110110000
100111010
110001110
1001001000
1000001001
111010000
110111011
100100011
111110111
1110011
1000001
1000010110
11101101000
100001100011
11000000100
100001101010
11110111101
10000011001
1000111001
1111111110000110
1111111000010110
1111111000000101
1111111101101100
1111111110111100
1111111111001011
10111
1111111111100110
1111111111100100
10010100
100011010
11100
1110111
10001111110
11000101011
101111100111
10010110100
100001000000
110001111000
1010100100010
1001111000101
1001110111101
1001011101000
110010101001
100011111001
11011111001
10010110001
10001010010
111001010
1111110111101001
1111111000111110
1111111110001111
1111111111101010
1000
1011
1111111111001100
1111111100111001
1111111111001001
101011011
1100011
10011011010
111001101
101001011
1000100101
1111110101001011
100101111111
11100101110
111010010
101110011111
10000011011
100101011
1111111010101111
11000001111
10001100000
11100000
100011110111
11000011101
111111100
1111111111010101
1111111101010010
1111111101110101
1111111111101011
1111111110101110
1111111101010111
1111111011010110
101001101
10010011100
11111110
1111111011110010
1111111101100100
10110010
1111100011110110
1111111101001100
1111100101000111
1111011001100010
1111100110011100
1111010110101001
1111110100111010
1111100100001110
1111110000011000
1111111100111001
1111100000000000
1111111010100101
10000000010
1011100110
11000101011
1111110101
100001001
1111111111100101
1111111111101000
1111111101111010
1011001
1111111110110001
110000000
1100100101
1111110110010100
1111101010110111
1010010
1111110011100111
1111110101100000
1111110011100001
1111010111000111
1111011101100001
1111100110101110
1111101100100001
1111011100111100
1111100111110010
1000
1111111101010011
1111110001101000
1111111110111010
101000011
110111010
100000110110
11001100011
11011111
10000
100
1111111110110101
10011000
1111111100000011
100111100
1111111111000001
1111011110110101
1111100011011111
10011100
1111111001010100
1111011111011000
1111111010000001
1111100111101001
1111011111101110
1111011100101000
1111100011001011
1000101000
1110
1000011001
1001000100
1011010101
10011000010
1000010111
11100011111
10010000010
1011101001
100000110
1111111111011100
10111
1111111110111001
1111111111110101
1111110101111010
10000011010
1111111000000000
1111100011011011
10010001110
1111111111011010
1111101101100110
1111110101011111
1111101110101010
1111110100001011
1110111011011100
1110111101001010
1111101001110110
1111011110101101
1100000111
10101010
10111011010
1111101010100001
1111110110001111
1101010011
110111001
10000100000
110100100
1111111100111111
1111111111101011
1111111111110010
1111111110110001
1111110101100001
1111110001010101
1111101111110111
1111101010000101
1111110100011000
1111110001111111
1111101010010100
1111110010100111
1111101111011111
1111010000100011
1111110100011101
1110111101110000
1111001110000001
1111101100100110
1111111100111111
1111111101010110
1111101001100000
1111110101110100
1111101101011110
1111110010000110
1111111000111100
111000011
1111111111100100
1111111000110100
1111111010111000
1111111111001001
1111111111110100
1111111111010111
1111111000010011
1111110011111101
1111011110100101
1111010001001010
1111110000001110
1111110111100110
1111110011101100
1111110011110010
11001010111
11000110100
101010111001
11001110
110101000
110100011
10010011100
1111011110101100
1111110000101011
1111111111000110
10100111
101110
1111110001111011
110010101
10110101111
1111111000011000
1111110111110101
1111111100111100
101000
100101
1111111000111000
1111111000010011
1111010000011011
1111101011010110
1111111110110111
1100110000
1000000000
11010011100
11101001101
10001001000
100011111000
101011001
1111110010000011
1101011
1111111000100111
100110101
1111110100010010
1101111001
1111110001001100
1111111101011101
1111111100001111
10111000100
10000000111
1111111111100100
1111111010100100
1111111101101010
1111111111101001
1111111111111001
1111111100110101
10011110
1111111100100000
110010000111
1010101010
10110001101
1111111101010100
1110000001
1111100000
10001111111
10110111101
10100001
11011011
1111111100100111
111101011
1100100011
1111101001111101
1001001011
1111111110000011
110100110
1001010111
1010001101
1010110010
1111111001111110
1111111001011011
1100
10000
1111
110101001
11100111000
1110000111
1101100101
100111111
10001110000
111011100
1000110100
10010110111
1111111001101001
1100110101
10101111
110
1110111101
11111010111
1111110101000111
1111100001111101
1111111101111010
1111101100110010
1111111111100000
1000110110
1000101100
1000101111
101000010
1111111011001000
1101
1111111111001001
1111111111111011
100101101
10100101110
1100011001
101110110
11000011011
111000101
1111111010101001
1111111001000011
111000100
11011001
111011011
1010000000
10110110011
101101011100
101010010
1110101101
10001000011
100101110
10110101001
10000101110
1111111100100110
11001000111
10100010010
1101100010
1111111010011000
1111111111110100
1000100
1111111111101101
100010110
100101000
10000001000
10011001000
1101100000
1111111010010100
1111110100111111
1111110000001001
1111101100101110
1000110101
1111100111111101
1000011110
1111110010
1010101001
1111111111011010
1111111001100100
100010000
1111110000101111
1111111111110010
1111110111101100
1111110010010111
101000
101101001
111001101
1111111000010111
1111111111110111
101101
11011
1111111111010011
100000000
1011100101
10011011010
1111111010000011
1111110001110101
1111110101110000
1100001000
1111101110010110
1111111101110011
11110010
1111111101000011
10001111110
1111111010011010
1111010000
1111101101100000
1111110000101010
1111110110000010
10001011
1111111000001010
1111101011011000
110000100
110011100
1111111110111011
1111111100100111
11101
100011
1
1111111101011010
10000111
100110101
1011110001
1011101011
1111010000
1111111110110010
101100111
1111110111000101
1100110000
1111110001010010
1000110110
1111111000010001
11001101
1001000011
110010
1100011010
1111111000011010
1111111111100100
110101101
1111111010110111
1010010011
11111101
111011
1100
10001
100001
110010
1111111110010100
100010010
1001100101
10000100101
11001010011
100000110000
10010101000
1111111110111110
1010001011
101011011
1000001001
1111100001010001
110101100
10011100010
11010100011
1110101110
1111100011
1111111001011110
10000110110
11110001100
1110101110
1100101001
111011001
1111111111100000
101001
1111111111100111
111011
1101
1111111111110010
101100101
1110000010
11111111111
101011101111
101111110000
100111110101
10010000110
10100111101
100101011
1111110000011111
1111111110000010
11001110
101010111
10101010101
1110011001
11000010100
10000010011
1101011111
10000111011
10100101110
10001100101
1111111111110010
101000111
10011001
10100
100
1110
1111111111010101
100101110
101010100
10100111001
100001011010
100000000011
1100111001
1010001110
10111010010
101100001000
1111111010111011
110111101
1111111111000111
1111111011111010
1111111111100110
1111111001001101
10110100100
100100110000
1101110011
1101110111
1101101
1111111001011111
1111111010111001
1000111
1000000
11011
0
1111111111100110
100100
111110
1111111010100010
1111111101101101
1111111111100100
1111110100000011
1111110101110100
11001101011
10001001111
11011010001
1101011111
1111111000001001
1111110001
11010100
1000
1000010001
10111101010
100111000101
11100110111
11100101010
1111111010010000
1111110101100100
1111111010100100
111000011
1110
1111111111101111
10100
100111
0
1111111111110101
1111110001001011
1111100110010010
1111100010010110
1111101000000010
1111100000011100
11010101
1111110111110111
1111111011011011
10000101000
1010000001
11111101011
1110010110
101001101010
10101011001
10001000010
1110100110
1111111011110111
10000011000
110
1111111111110011
110000011
110111101
1111111111101100
1111111111100011
1111111111110100
10011
1111111111011001
1111111111101101
1111110100011001
1111100000110000
1111100010000100
1111100011000101
1111011100101001
1111100011100010
1111101110110111
1111101100110110
1111101110111111
1111110010000011
1111101011001011
1111110
1111100010101010
1111111001110011
1111111011100011
1111100010111100
1111100110110011
1111110010011111
1111110110001100
1111111100101101
1111111111001001
1010
100110
111110
10
1111111111111010
1111111111110111
11111
1111111110110101
1111110111111100
1111101101111011
1111101000010010
1111101001110000
1111100001010111
1111011101011101
1111100111101110
1111100111010001
1111011001011000
1111010100111110
1111100110000001
1111011111100001
1111101100111100
1111100110011011
1111101111101010
1111110100000100
1111111011010111
1111111111111101
10001101
1010011
1111111111000011
100
1111111111100111
1111111111001111
1111111111111001
1111111111000010
1101111
110010
11001
1111111111010000
1111111011010111
1111111011010001
1111111110111011
1111111000000000
1111111100101111
1111111101100100
1111111101010010
1111110101101101
1111111011001110
1111111100110111
1111111101000001
1111111011101010
1111111101001011
1111111111101011
1111111110111000
1111111101011011
1111111111110010
101
1111111111110111
0
1111111111101011
