1000000
110001
1111111111110111
1111111111110000
1111111111101000
1111111111111010
1111111111110010
10000
101
1111
111101
11001
1101
10000
110010
1111111111000111
1111111111101001
1111111111110101
0
100010
1111111111011000
100111
1111111111101000
1111111111110111
1111111111111110
1
1111111111110010
0
1111111111111011
1111111110111111
1111111111111010
1111111111101000
1
1111111111101100
1111111111100100
1111111111111000
10111
1111111111110111
1111111111011011
111010
11001
0
1111111111111111
1111111111011110
1111111110111100
1111111111101000
1010
1111111111110111
1111111111010100
1111111111001000
1111
1111111111101001
101001
1111111111100101
1111111111111000
1011
100101
1111111111110100
100111
1111111111111011
1111111111110010
1110100
1111111111001110
1111111111010111
1111111101110000
1111111011101000
1111111101010100
1111111011110111
1111111011011001
1111111010110100
1111111100011001
1111111001111111
1111111000000110
1111111001111010
1111111011000010
1111111011011111
1111111101110001
1111111110011010
1111111111110010
1111111111010011
1111111111110111
10
1111111111111001
1001
110011
1110
10110
1010000
11110
0
1000111
1111111111100000
1111111000111010
1111110011101000
1111110000111100
1111101101101010
1111110001001111
11111000
1100100100
11001101
101110110
11101
1111110111110100
1111111010010000
1111111100101111
1111110110101010
1111111011101110
1111111
10101001
100111
1111111111001010
1111111111011010
111111
0
0
10000
1111111110101010
1111111110101110
111000
1111111000111000
1111110000111001
1111100111101110
1111011110100101
1111111010000011
11011011
10111100101
1111111100000111
1111101000000011
1111110100111000
1010100111
1011001001
100010001
1111110101000110
1111110110001100
101100110
1000101
1111111001110010
1111111101100111
1111111110110010
1101
1111111111010001
1111111111111101
1111111111010011
1111111111101010
1111111111001011
1111111101001110
1111111001000111
1111111001010110
1111110111011110
1111100011100111
1111100000111100
1111100110110100
1111101111111111
1111111110110101
1111111101011111
1111101011000011
1111111101111001
1111111100010000
1111111001100010
1111011011
111001010
10101000011
10000010110
1111111111110000
1111110101101010
1111111100011110
1111111110001001
1111111110101010
10010
0
1110000
1011101
10000011
1111110111101001
1111110001101011
1111110001100110
1111100111111001
1111011101110011
1111011110100000
1111101001110000
1110111110
10000001010
1111100101100001
1111101001011010
1111011110011100
1111101000001001
11111111
101110100
11001011
11011010110
1110000000
1010
1111110001110010
1111101111101100
1111110101010000
1111111001110000
1
1111111111110001
11010101
111011011
110101001
1111111010001001
1111000010
1110111001
1111101101100011
1111110111000101
1111101011100111
1111101110001000
1111110110000000
1111101100011110
1111110001100011
1111101101010111
1111111010100101
1000011101
10100110111
1111111110001101
1111101100111001
1111111000001000
10111
10010010011
101101111
1111110010001011
1111110101111000
1111111110010001
1111111111111111
11000110
11001001
111000011
10000011
1111111100111000
10100010110
11101111000
100011000111
1111111101011010
11101101001
1111111110111100
10011
1111100111110000
1111111010101110
10
1011000111
100010100
10000000001
1111100100000011
100100010
1111111101010010
1111111001001011
100011010010
110110010
1111110011011100
1111111000101100
1111111111110011
1111111111110011
100011000
1111111101011111
1001100000
1011001100
110111100
100111010011
10110000001
111010110
11101111110
10111101111
1111111111010100
1111111111010110
1111111110111101
1111111011100010
1111110100000101
111011011
11001
1010100101
111100011
1110100001
10000001101
1111111111000010
11101111000
111111010
1111110011100110
1111110011100101
1110
1111111111101100
100001101
1000010000
1101101010
10011011111
1011011010
1111111111011011
1001000010
1111111001101110
100001111
110101001
100111101000
1010111100
10000010111
1111110101101001
1111100000111111
0
10010000110
101111100
1110010
1010101001
10101001110
10101000101
100111111000
1111111110001000
1111101101111110
1111110001101000
1111111111011010
1111111111110110
1100011
1110101010
11011111011
10001110001
1111111000001001
1011110001
10101010100
1111110000001000
1110110
1010010001
10000100
10111101
10001011
1111110101110000
1111011011110001
1111101110010110
1101000111
1100110000
100101001
1001111111
10010001101
1000010100
10100011011
111000000
1111110001100011
1111111001111001
1111111111011011
1
1110101
111011111
11001110011
1000100111
1111111101000001
110000010
111100100
1001000100
1101100100
10011100011
1110000000
1011101001
10010011
1111011110110001
1111011110111101
11001000100
10110101101
10001111010
101011101
1111111111001011
1111111101101010
100001111001
11100110111
101100100100
1000010110
1111111101110110
1111111111110111
111
1011110
1111011011
10011000
1111111110000011
1111111101010110
11001010
1111110111000111
1111110110111101
1001001101
1001000110
11111110010
1111110110110000
1111000010110110
1111000011100000
1111001101101000
1111111110001100
1111111010000100
1111110000101001
1111110010001110
1111110011001110
1111110101100001
1110110101
1010111110
11000101011
10010000011
1111111111110111
10100
10010
101101
100100110
11100001
1111111001000001
1110111101
1111110011110111
1111110110100100
1111111111010010
10011010
10101110101
10010100100
1111011110010010
1110110100101000
1111010101111111
1111101110100101
1111101100010110
1111111110000011
1000100
11100001
1010001011
10001011
10111001000
11010101110
1111111101001100
1111010000
111100
1111111111000000
1111111111101100
101100
111110
1111111111100011
1111111001101000
1010010100
1111111110101111
1111110111
1111111010000001
1011111001
11101101101
1111100110010000
1110101100101100
1110110100110011
1111100110010101
10110
1111111100000001
10110010010
1111111010000110
11011100001
1111111111001000
1111111100100000
1110011101
1101100001
100000011
100010100
110011
1111111111011001
1111111111111101
100100
1111111110110010
1111111101000110
1101011110
1001011101
111011011
11111001101
1110011101
1110001100
1010010
1110111011001001
1110010101011010
1111010101101110
1111111111110001
1111110110010100
1111111000111000
1111111110100000
1111101101110111
1111111001010001
1000100111
1111110101011100
1111111001010011
1000010011
1111111011011000
1111111011001001
10110
100100
11001
1101
1111111111101110
1111110111111011
10100110110
101010100
1111110101111010
1011000000
11000
1111111111111110
1111110011001010
1110110001101111
1111000110111100
1111111000011110
1100101011
1111110101101011
1111111001100100
1111110001110100
1111111001011101
1111010101101111
1111111111011111
1111111011110110
11000000000
1000000111
1111111011110101
1011
1111111110111000
101011
1111111111110011
110101
100101
1111110100101101
1100001011
1111111111111011
1111111110000010
100001011
110001110
111000001
1111011011001011
1111000110000001
1111110000010101
1111110111110010
10001110010
1111101100110001
1111111110101000
1111111101101001
10111111001
1001000
1111111110001100
11111011011
10001101001
1111110111110010
1111111110011001
1111111111110111
1111111111111011
110011
111010
1111111111110000
100001
1111111000111100
10100100
1111111111011100
1001010001
1100101010
1111001000
1111111100101100
1111100011000001
1111010101110111
1111101110000100
1111101011101010
1000111011
1111110001011000
1111110100110000
11011110100
10000111110
11011111011
10111010
1101010101
1111111111100100
1111100101100110
1111111001001011
1111111011110000
1111111110000110
1111111111111110
10010
1111111111011100
1001
0
1111111110011000
100000001
1111110101111100
1111111110010000
1111111010010001
1111110111001110
1011101010
10101011
1111110101011110
1111111001010010
110100111
1111110001001010
1111110001011110
1111111000110011
1111101100100100
1111111001001100
1111100010111010
1111101111110111
1111101011001100
1111100101010001
1111110101010101
1111111000010100
1111111111010100
1111
110001
10000
11111
101000100
1111111100101100
100110010
1111111110101001
1111111000101100
1111110111111011
1111111000010110
10101010011
11000111100
1111111000001110
1111111100110000
1111111011011011
1111111100101100
1111110111100111
1111110011101100
1010011000
1111101011000011
1111101111100011
1111111100010101
1111111000011000
1111110001110111
1010101
10011
101011
11110
1111111111100100
1111111111010110
1111111111101010
1111111101001001
1111110010000101
1111110100110111
1111110011001100
110011
1001001101
1101
101011001
1111111110000111
1111111011100100
1111111010
1111111110011100
10000010001
1111111010101101
1111111110001010
1111111100010111
1111110010111111
1111110100100010
1111111100011111
1111110001010111
1111110100101010
1111111110000010
10100
1111111111100111
101101
10011
110111
1111111111101111
1111111110011010
1111110110101111
1111101110110010
1111111110100110
1001111010
1111111101000100
111100
10000111
1111111101110111
1000111
1111111011001101
1111111101011111
10001110100
1111110001011001
1101
100100
1111101100101000
1111100011111111
1111101110011101
1111110001110110
1111110100001100
1111111110000011
111100
11100
1111111111110110
1011
100000
1111111111100111
1111111110100111
1111111101010000
101111
1110100011
111100
101001001
1001100001
10010000
1111110111000111
1100011101
11111110
1111111111010010
1101100100
1111110100111001
1001110111
1111111000100100
1111110100000101
1111101111010100
1111110010011011
1111110110101000
1111110100111111
1111111100010111
0
1010
1111111111101000
101111
1111111111010000
1111111111010111
1111111111000111
1111111100111011
1111111101000111
1111111100101100
1111111100000000
10100011
1000101001
1
10000111110
1111001010
1001011100
10011100001
10001100011
1111111110100000
1111111111110111
10001101100
110101110
1111110011100101
1111111001110011
1111110110100001
1111111000110000
1111111110011111
1111
1111111111110110
1111111111010001
1111111111110100
1111111111110110
1111111111101000
1111111111110101
1111111101100011
1111111000000101
1111110101010001
1111110101101000
1111111011101110
111110
1111110100111110
110101011
11010111001
1010101111
1000101111
1111111110111101
1110001110
10001110111
10011000011
1101111110
1111111001111000
1111111101111000
11110
1111111110001110
1111111111101100
1111111111111001
10
10010
0
100101
1111111111111101
110011
1111111111110011
11111
1001000
1010010
11000
1110100
10010100
1111111101110101
1111111111101110
11101
100110011
1111111110010011
101001000
100110011
1111111111100011
101001
10110001
101011010
100001110
101001
111
101101
1111111111101100
1110
