10001
1111111111100101
1111111111001011
111110
1111111111110011
1111111111110010
11100
1111111111110101
11101
101001
1111111111110110
1111111111000100
1010
1111111111010010
1111111111101101
10000
1111111111110100
1111111111110110
10110
10
1111
1111111111100101
1100
1011
1111111111111110
1111111111110101
1111111111110011
1111111111100100
10
1111111111101111
1111111111011111
101
110000
1100
1011010
1111
1111111111110001
1111111111011000
1111111111111001
1111111110111001
1111111110010001
1111111111011010
1111111111100100
1111111111100011
1111111111100101
1111111111110010
1000
10101
111000
1111111111100100
1111111111110011
1100
1100
1111111111000011
1111111111111001
111010
1111111111111100
1111111111101010
100111
10011
100100
1111111111110111
11010
101011
11101
10110010
1011100
1010000
111000
1111111101101010
10011001
1111111110110011
1111111101100000
1111111111010000
1111111110001111
1111111100000001
1111111111001011
101100
11010
11001
111010
1111111111011101
1111111111110010
11011
11100
1111111111101000
1000
101010
1001001
1000011
1100001
10110010
100010011
110001101
111001100
11010111
1111101101101111
1111101100011010
1111110001010111
1111101101000000
1111110000011110
1111111101101100
11000100
1111110100110000
10110111
1010111011
101101011
1011001
101000
1111111100110111
111000
1111111111000001
1100
11100
11101
10000
10110
1110
101110010
1110011110
1011111011
1111111111000100
1111111100110110
1111
1111111111010110
1111110011110000
11111110
1111101110011010
1111111001001100
1111111101101001
1111111010000100
10101000
100010100
1111111001110011
1111111000111100
1111111010100001
110110001
1111111101101001
1100
11111
1111111111010100
1111111111011101
10
100001
10100000
1111111011100010
111001010
10000110111
1001111010
1100110
1111110000101001
11011010010
111001100
1111110111010001
1011010001
1010111100
1111100100010111
11110110
1111100110101110
1111110001000000
1111110111000100
111000011
1111111001110000
1111110101010001
10101100
100010
1111111111010010
1011
1
1111111111100111
1111111111100100
100111
1111111110110000
1111110101100010
110001011
1100000000
110101000
111011000
1111111011010001
10000101
10110011
1111111101111011
1111101101110100
110101
1111110110101111
10001110110
10110001
1111111000000010
1111100001011001
1111110110101001
101011
1111111011001001
1111100111101110
1111101110110101
1111111001110100
1111
1101
1111111111100100
100101
1111111110011011
11001001
111101
1101110
1111111110100111
1111111111111101
1111110110000100
1111101101001110
1111110100111001
1111101011011011
1100011011
1111101011110110
10000100101
1111110001101100
1010100111
1111111010101011
1011110010
1001010100
10011110101
1111111110111101
1111110010010001
1111011111010111
1111100110111011
1111111100000011
110100
101001
1111111110100011
1100
1111111100111110
10000011
1010111101
1000111111
1111101011
1001011101
10100001101
11000011
1011111101
1111111011010111
1111111111110111
1111111001011011
1001010110
10111000
1010100110
1111110000010110
1110001101
1111110100011010
1010011011
1001111010
1111100101001110
1111100001000010
1111101111011111
111100111
101110
100000
1111111101111100
1111111111110100
1111111110011011
11100010
10010010010
111110011
1111111011011111
1011110101
1101101011
110110000
1111111010111110
1111111001110111
1111100001110010
1111101001110001
1111110001101101
101001000
1011010001
1111110101001000
1111111110010110
1110011100
10011010110
1010100110
1111111001011000
1111101000001101
1111101010111011
1111111110111010
1111111101100001
1111111111111000
1111111110100000
1111111101000101
1111111100001011
101100001
1000110100
1110110110
1111110110100000
1111111100001011
1111110111000000
111010110
1111110110011001
1111100000101111
1111010100000000
1111111011010111
110101011
10010110011
100001000010
1110111011
11001000011
1111111011101100
10100100
1001101
1111111111000101
1111101100101100
1111100010000000
1111110011110001
1111111101001000
1111111111111001
1111111110100100
1111111000010101
1111110110010101
1111111011011011
111000101
1111111110101001
1111111010000010
1000001111
1111111010110000
1111110100010111
1111110100101001
1111101100110101
1111111000011101
101000100010
10110011000
11100010011
10010101010
1111110110110000
10000101111
11101101111
11001010100
11111110111
10100110011
1111110111010000
1111101111110011
1111110110110101
1111111111110111
1111111111011101
1111111111101011
1111111001100101
1111110001001100
1111111000110000
10101110
1111110011000010
1111101110100000
1111010111011001
1111011010010011
1111001010100111
1111011010001000
1111101110110011
111000111
100011000111
11001111000
11000010110
1101100000
11101000
100000001100
11111000011
101110111111
100000111110
10001011001
10000000
1111111101001000
1111111011101001
1111111111110101
1111111111111100
1111111111100111
1111111010000101
1111110110011101
1111110110001010
1111100011001000
1111100111011010
1111100010100010
1111110011101100
1111110001100000
1111101001111010
1111111100001101
1011111110
110100001101
1010010111
10110001010
11101100001
10010100100
111010111
11100011111
11110111011
10101100100
100100110
1111111010111001
1001010
1111111111111011
1111111111000001
110010
101011
101000
1111111110001100
1111111001010111
1111111000001100
1111110010100011
1111101011011001
1111110100010100
1111011100010011
1111101010001100
1000101111
11011111011
100101100111
111000110001
1110110100
1110011011
100000001100
100100011100
10101111100
100011101001
110111000
110010011
1111101111000110
1111101010100010
1111110000010101
100110100
1011000
1111111111000111
1010
1111111111110011
100101
1111111010001100
1111111100101010
100011011
1111110011000000
1111110001110000
1011111110
1111111011011101
11100110
10000010110
1011010010
100001001100
11011011011
1111110111110110
10001010011
1110110000
1111111110001001
10111011000
1111101111011011
101111110
10001100001
1111110111001001
1111101101101001
111110001
10110110
100
1111111111101111
10000
1111111111010010
1111111101111110
1111111011101101
10101001
1111111111
1001001100
10011101101
1011010001
10111000111
10010111101
111000001110
100110101010
101001101
1111001110
100101100010
10011010010
100000011
111010110
1111101110100000
1111111111001101
101010010
10001100
1111111000000001
111010101
1100001
11100
1111111111111111
1111111111000111
1111111110100010
111011
101001010
1111111011010011
1111111010000111
1011101001
1001011000
110000001
10011011010
101111100
101000000011
100011110011
10010000111
1100010011
1101011110
1111111101101000
1111110010001110
1111101011001010
1111111001111011
11011110000
101111
1111110100010110
1000101
1010101
10011
1111111111110011
1111111111010001
1111111111101011
1111111111111101
10111001
1111111111011100
1111110001011000
1111101111011101
110010
1111111111100100
1000010011
1011100011
11101100111
110000110111
100110111111
101111000
1111111101010001
1111110011000100
1111111001000011
100010111
1111111011000100
1111111101110111
11011010
1111111011010100
1111111000001111
110010001
10101001
1101101
111110
11111
10101
111101
110110111
110110100
1111110000000100
1111101011001001
1111101101001110
10010111
11001100011
1110011110
1011010001
11111101001
110100100
1111111100100001
1111101100000010
1111100110011110
1111101001101111
10010000
1111110000010011
1111100001001101
111011
1111110101001010
1111111101010111
1000000101
11110111
10110100
101110
1111111111111101
110111
1000010
101100111
10011111
10000010
11110100
1111111000101001
1111110110010100
1111101011111110
1111110000101100
1111101101010000
1111110001000110
1111011101111101
1111111111110001
1111111011110000
1111101011001101
1111110110001111
1111111100110000
1111101010111010
1111110100010100
1111111011100000
1111011111101000
1111110111110100
1011111
110000100
1101011
1111111111110001
1010
1000
111
1111111101100111
1111111011101010
1111111111111000
1100010001
1111111011100110
1111101010110110
111101001
1111101100100100
1111100011100110
1111111011111110
1111111011100110
1111110010011100
1111101110100000
10011101
1010011
1111100000101000
1111110111001101
1111110111011010
1111111011100001
1111101000110111
1111110010011110
1111111100101101
101000
11100
110
101111
100010
1111111111100110
111010
1111111101100111
1111111111001001
1111111000001111
1111110001111000
1111110011101100
1111101011100000
1111111110110001
1111110110111110
1111101110011011
10001011
1111111000101010
1111101111000110
1111111001100011
1111101111000111
1111101100111011
1111101011
110100011
1111111000101010
1111110110101100
1111110000110110
1111111011111110
101001
11111
1000
10110
1111111111100011
10110
101111
1111111010010101
1111110100111000
1111111011000001
1001111101
101001001
1111101111011000
1111110110000000
1111101111100111
1111101101100010
10100010100
1111111100101101
1111111101011000
1111111111000011
100010011
11111100101
10000100011
1111111101110111
1111111110100010
1111111011001001
1111111111110100
1111111011011000
1111111111001001
11011
1111111111001101
1111111111111111
10
11110
10000110
11000010
10010000
100100111
10101
1111111000001011
1111100111000100
1111101111110100
1111111111101011
1111111101111001
110101101
1111111010010110
1111111000001010
1111111111000101
1111101001010000
1111111000101100
111111111
101010110
1100010
1111111101111111
1100000
1111111100010110
1111111111110111
1111111111101101
1000010
1111111111001101
1111111111011100
0
1111111111000100
1111111111100101
1100110
1101000000
1000101111
1111111100010011
1111101111110101
1111111000010001
1111101110000111
1111111010101010
1111110011011111
1111110010110000
1111110101000011
1111111001011100
1111101101011011
1111011110011111
1111100100000110
1111111100011101
1111111010100010
1111110110010101
1111111011011100
1111111101000011
1001
100010
1010
1111111111111101
11111
110101
1111111111010001
10001
110
110001
1100101
10001101
1111111111111011
1111111101110000
1111111001000100
1111111100000110
1111111010110111
111011
1111101101110110
1111110001010000
1111111101000110
1111110110110011
1111110001000010
1111111001111111
1111111010110011
1111111100111101
1111111111100111
10011
1111111111101001
1111111111111011
1111111111111000
1111111111101100
1111111111110000
11001
1111111111111011
1111111111001011
1111111111100001
1111111111100111
0
1111111111000111
11
1100110
1100001
1000100
10000
111001
100000
100011
101111
10010111
1111111111100100
1111111111001010
1111111110100111
1111111110001011
11100
1111111111101110
10100
10011
110001
