0
1100
1111111111100111
1111111111111110
1111111111111011
1111111111111111
100010
100100
1111111111110111
101101
1111111111110011
1111111111100111
101110
1101
1111111111111100
1111111111111100
111
1111111111110000
1111111110110110
111110
1010
110001
1111111111111100
1111111110111100
1111111111000111
110010
11001
10
1111111110111001
1111111111110101
1111111111101110
10110
1111
10110
1111111111111100
1111111111100010
1
10111
111011
110011
1111111111111111
100
1111111111110000
1111111101111000
1111111101000101
1111111111101000
11010
101111
11010
1111111111111110
10001
1111111111101100
111011
101010
1111111111111010
1111111111111110
1111111111111111
1000
10011
101111
11111
1111111111100000
101001
1101110
1111101
10010001
100100011
10011010
1111111101010101
1111111100011100
1111111000011000
1111110010111000
1111110000100011
1111111101010001
11010101
11010100
1110101
10011110
111001
10110
1000
1111111111100110
1111111111111101
10100
10010
100
0
1111111111011001
1010101
1111111011010100
1111111101110111
1111111101001000
1111111111111011
1111111100000100
1111111000000000
1111111000110000
1111110111010100
1111101101011100
1111101001001101
1111101011000001
1111100110011010
1111100011101000
1111101001100011
1111111001010110
1111111000011000
10111100
1011
11000111
10010110
0
1001101
110111
1111111111010000
1111111111010010
1111111111110001
1111111111101100
1111111111010001
1111111011000100
1111111010110000
1111110100000110
1111111001011111
1111110011111111
1111101100111101
1111111011100001
1111110110011000
1111110101001111
1111111001110110
1111110001011011
1111011110101100
1111101100110010
1111111011111000
1111111011000100
1111111010011010
101110010
1111111111010001
11011000010
1011110110
1111111010110111
1111111001111111
1000
0
10001
0
1111111111000001
1111111110110100
1111111000000000
1111111010010101
1111111110100110
1011111011
1111111111001101
1000000011
11010000111
1101100
1111111001100011
1111110101111011
1111110110111110
1111110010000010
1111110000111000
1111100111000101
1111010101010010
1111110101000100
111110
1111111000001100
10100001101
1001010011
1111101110100010
1111111011100110
1110
110001
1111111111110011
111000
11101
100110
1111111001111000
11110100
10110010100
110100110
1010011111
10010110
1100100
1111010
1111110011001001
1110010101
1111101011001110
1111111000000001
1111110100011101
1111101011111101
1111100011101110
1111111011110000
1111110110000101
10010100100
1011101101
10000010000
1111110001001111
1111111101100111
100010
10011
1111111101111111
1111111111110000
1111111
1111111010110110
1111110111000001
1111110111111010
1111111110001111
1111111000001110
1111110111010001
1111111111111011
101010010
10000010
1010111001
100001001011
1111111010000100
1100101101
1111111110111101
1111011001100110
1111011110011110
1111111001011010
1111111000111011
10110110110
100111101100
1011011101
1111111101010101
1111111111101001
1111111111110011
10001
1111111111110011
11100
11100000
1111111000101010
1111110011100110
1111100000110010
1111101101010110
1111110010001001
1111110100011110
1111111100011010
100100101
1111110011111000
1111110010111010
10111000010
100111110000
101111000
1111010110101010
1111000000000010
1111001101110100
11001000
1111111000000101
1111110110000001
110010011010
11111001001
110101
110000
1111111101010001
10011
1111111111101101
1
1111111011011101
1111101101101011
1111111000100001
1111101011111100
1111111100100000
1111111011001100
1111111110111010
101110010
110101110
1111111110111101
1111110011011110
11001010001
100111110101
1111111100100000
1111010101110011
1111100001111010
1111100111100100
1111111110001110
100000000
1111110101000011
10110001011
11011110101
1111110111100111
1111110110100101
1111111111000011
1111111111011010
1111111111110000
110001
1111111000110010
1111110101100100
1101100110
1111111110111111
1011100100
1001110100
1111111111010110
10011101
100101101
1010110000
1010001111
1111111111000001
11110011010
1111101111100011
1111100010100011
1111100101001000
1111010111010011
1111101010111001
1111111000011011
1111111011111011
11100111010
111100001110
1101010011
0
110010
1000
10101
1111111111001000
1111110110010010
1111111000001100
1110010111
1010001111
1111110011110101
100110010
1101101010
111101111
11011011000
1001111101
101000011
1111101100100110
10011111
1111110000111011
1111011101010111
1111100011000001
1111011100000101
1111001111001100
1111111111110001
1011111011
100101001001
100010101111
111010110
1111111111100011
0
1111111110010001
100001
1111111111001001
1111111001100101
1000000
11010010
11000010010
101100101
11000011100
11111111
1111101001110010
100111011
1111110010101000
1111111111101001
1111111101001101
1111111111110001
1111110011000101
1111001100110001
1111010011000100
1111100000100100
1111100111101001
10010111
101001000110
11011110100
11100100
1110011
1001010
1111111111110001
1111111111111010
11
1111111110001011
1111111011001100
101000111
1100110100
11110000101
100111000000
1001001011
1111110001100010
1110000010
1101010011
11010010011
10110000011
1111100111101011
1111101010111100
1111100000110000
1111010110011000
1111010010111111
1101110110
10011111
110110111110
111000011001
11001011000
100100100
101011110
1001100
1111111111011100
1111111111101001
1111111111101101
1
1101001
1111111100101001
1111011011
11000101100
1000000011
101011010
10011101101
11011001010
1111111110110111
111111011
1111110000100111
1111100011011101
1111110010010011
1111101011001101
1111011100001101
1111111001001011
11111100111
100011011011
10100000111
11011010010
11111000111
11101
1111111100010010
1111111110111010
1111111111001101
1111111111011101
1111111111010110
1111111111011010
1011011
1111111001010110
1110101100
10101001010
1111111011110001
111011011
1111001101
11100110011
1111100101000100
101001111
1111011101100111
1111110101110111
1111110010001100
1111011111111100
1011100101
10100100100
11100100111
11011001011
1110100110
1111110011101101
1110100110
1101101
1111111001010001
111101
1111111111010100
1111
1111111111010001
1111111101101001
1111111100001110
1111111101010001
1110100000
10101101000
1111111010010000
1011011101
1111101110011001
10011100
1111111100000100
1111101010011101
1111100101111010
1111110011101000
1111110000000000
1000100000
10101110011
100101111110
11001100011
10001101111
1000111011
111010001
1111111111110100
1111110110001110
1111111011000110
111110
10110
1010
1111
1111111011001100
1111111011011100
1111110000111110
10100111111
11001000000
1111111111011110
1111111010100110
10000010001
10011000100
1111111010000001
1111101011011000
1111101010101110
1111111100011001
11111010011
11110110100
10010010111
10001001000
1111111100011000
11100110111
10000110111
1010011111
1111110101010001
1111110101011110
1111111111110110
1111111111000001
1111111111111101
1111111111110100
1101
1111111110011001
1111110011001101
1111110100101111
1111110100001101
1111111000000011
100011101
1111111101101100
1111111111000001
101000111
1111110001101000
1000101011
1111110110100010
1000010
1100000000
1111111101001001
1111110001011001
1111110101101011
1111110001010100
101101001
1110001
1111111000110101
1111110111111110
1111110100001101
100001010
1111111111001100
11000
1001
1111111111110000
10000100
1111111001000101
1111110110000010
111110110
1001111
100111011
11001000011
1111111110001100
1111111101101010
11100010011
1100111100
1000100101
1101010100
1010
1111011110101100
1111101101111011
10001011010
1111111101001111
100011100
1111110100111010
1111111011011110
1111111010011101
1111111111101100
1111111110101110
1111111111101110
1111111111010110
1000
1001
1111111111100111
1111110000111110
1111101010010100
10110110111
101001100
1111101010101111
1111110101100101
1111010011
10110111
110101100
100110101
100100100011
100100101
1111111001100001
1100101010
1010110010
1111110111111100
1111110010010000
1111110101111111
1111110001101110
10100001010
1111111100100000
100000000
1111111111000011
11111
1111111110110101
1000
11111
1111111100100100
1111110010111010
1111111011010011
1111111011110011
100000110
1011101110
1111111010111110
1111111011000001
101010
111100000
1111111011110111
110101011
1110000000
11011101000
1111001100
1111101111101110
1111101110011010
1111110110110010
1111111001100000
1111110111110001
1111110111001100
10011000
110110111
1111111110001101
1111111111111000
1111111111110111
11100
11101
1111111110100000
1111111001000001
1111111100111110
1111110011100100
1111111000110001
1111110100111100
111010001
10010100101
1111110000011000
1111111000110011
1010111100
11000100101
1001101000
1111111001101011
101110111
100010100
1111111000100001
1111110000111010
1111110101000011
1111110110010110
1111111110100000
111000000
101101011
0
1111111111110111
1
1111111111101010
111010
1111111110101000
1111111100100111
1111111111010011
101100110
111100111
1111101101001011
111101110
1111110001100111
1111111101110000
1111110111011001
101111110
1111110100111000
11110101
1101101010
111001001
100010101
1111111011111010
1111111111101000
1111111110101001
101100110
111011011
1000100111
111100
1111111111010000
10110
1111111111100100
1111111111010111
11100
11101
1111111101010110
1111110111101001
1111110110111001
1111101100011000
1111110111011011
1000
1101101111
1111111001000000
1111111110001001
1111110110011110
1111111000100011
1110010
1111111100011101
1111110110010110
1010100000
1101100000
1001101011
1110011011
1010000111
1000111001
110011101
10111001
1111111111111110
1111111111111001
1111
1111111110101101
1111111111110001
1111111111101111
101111
1111111110010110
1111110110100111
1111101010111000
1111110001011110
1111110011001101
1111110110100101
1111110001100101
1001110010
11101001
11011
11001
111110
1100001100
111010010
1100000010
1000000001
11010100
1101011101
1000111110
101110011
1010011
1111111111100000
10111
1111111111111001
1111111111111110
1111111111111111
100000
1111111111111111
1111111110100010
11111
1111110
101000100
1111111111101101
1111110111100011
1111111101010001
110110000
1001001011
10111000
11000010
110100101
11000010
11000010
101110010
11000110
11001010
110001111
10101100
0
1111111111000111
1111111111111100
1111111111011101
1111111111100110
11001
111110
100001
1111111111101001
1111111111111111
11010
1111111111100100
11101
10100
10110
1100
100100
1101111
100011
100000
1111111111100100
1111111110111111
1100
10001110
1100010
1111111111101100
101100
1000001
1111111111101011
101111
11000
100100
10110
