1111111111101000
1111111110101100
10101
1111111111001011
1111111111100011
10111
1000
1111
10100
101011
1111111111110011
1111111111110010
1111111111111111
11000
110
111101
101
1111111111101011
0
10010
1111111111011011
1111111111110100
1111111111110111
10001
1111111111111111
101110
1111111111010100
11
1111111111010010
10000
1111111111110111
1100
1111111111111001
11010
100111
1101111
10110111
1010110
10000000
110100011
111011000
100111110
1111111111001101
10100011
111100110
101000001
1000010
1100101
1010010
11011
1011
1000000
10000
1111111111111101
1111111110101000
1111111111111011
110011
1001011
1111111111100001
111011
11010
10001
1001001
111101101
1000010101
111111111
1111000101
1110000011
10100010000
10010011001
1110101101
1011000111
1010000111
101110
1111111100010111
100101111
10001101
11111001
10101110
1001111
100110
1111111110100111
100111
1111111110101000
101
11111
1101
1100010
1010
101101
101000001
10000000111
10110001101
10101011100
100010000110
100110010100
101000100110
101100100101
101000111111
10010011010
1110110010
1011111001
110111
11101011
101101000
1111111011101001
110000011
101111110
101100011
1101110
10010100
1111111111100001
10100
101011
1
1111111111011001
1111111111011000
1101000
1001010000
10011111000
10001000110
10100110000
100101000000
100110001001
101011100100
100101000110
1101000101
10000110001
1010010000
1000111101
1011111
10000100000
11011011
1111111011011101
101110011
1111111010110011
1111111100110111
1111111000111101
1111111010101110
111
1111111111000101
1111111111100001
101100
1111111111011001
11010
1111111111110000
1110101100
11101110111
11011001010
1111001111
100000001101
1011000000
1111110101010111
10001010110
11100001110
10011100011
1010000010
1001011010
101110011
1101110111
1111110000101000
1111111111110010
1111111001111101
1001110001
10001101100
10110011
1111111111111010
1111111111101010
1010
1111111111110110
1111111111010001
11
1111111111010011
1111111010010011
1001110101
11010010011
1100100001
101111001
1111111010001110
1111111010001000
100101011
10101011
1111111100101001
1111111000000111
1111011110
1111111011110110
1000101010
1111110011001111
1111111001111010
1001101111
1110001011
1111110101111101
1111111101011010
111001
1111111100010110
1111111111000001
1111111110110111
1111111111001111
1111111111001001
1111111110011100
1011
10111010
11000010
10001000010
1111111100010000
1010011001
1111100010111100
1111110110010011
1111110101000000
1111111010111101
1111111010001000
1111101100010101
1111111001010010
1111111111100111
1101111001
1111110010001101
1111111001010110
1111111111011011
1001111010
1111110110001110
1111110111111100
1111110011101111
1111111010001000
1111111111011111
100010
10010
1111111111111111
1111111111001111
100011111
1010011011
11000001
1111111110011010
11111
1100100100
1111111101111010
111110011
1111010010
1011111010
10100100110
1000001010
1111111110110100
1001110000
1111011100000001
1111110101111011
1111100111011101
1111101000101010
1111111010001001
1111101000111110
1111100011000010
1111101000001010
1111111001100111
1111111111010011
1111111111111010
1111111111110001
0
1111111101001011
11010
1111110101101100
1111110010111010
1111110010111010
1111111110001000
10001111111
10010001000
1111101100111010
111100110
10100000000
1011000111
1101110011
1111110001001011
1111010101010000
1111101101010011
1111111110111010
11011
1111101100001011
1111101011101110
1111101110111111
1111101110000111
1111101110001110
1111111000000011
11100001
1111111111111110
1111111111011000
1111111111111011
1111110101010100
1111101110001100
1111100010100001
1111100001101001
1111100101100111
1111110010010101
1110000010
1111111011110100
1111111101010000
101110000
11100101100
100011000001
10010110011
1111111000010101
101011010
1111110101100011
1111110011010000
1111110111110011
1111110100111110
1111101000101111
1111100011011111
1111101111001111
1111101100100011
1111111000011110
1101
11111
100011
1111111110111110
1111111000001101
1111011110010001
1111100001001010
1111101000110101
1111000111111001
1111101111100100
1111100110101111
1111101110101000
1111110111011011
1111100111010010
1000101011
101000101110
1101110
1100010010
1111110110010101
1000011001
10
1111111010100111
1000011101
1111111000000100
1111101101010110
1111011101100101
1111011100001111
1111110001110110
1111111110100110
1111111111110000
1111111111111010
10110
1111111100000000
1111011111101100
1111101000110000
1111011100000100
1111011010001011
1111110001011011
1111100110000111
1111100110001010
1111101101000110
1111110110110001
1111111100000001
110000011
1111111011100100
10000100101
1111110001000101
1111111111010010
1111011111011000
1111110101010010
1111111011101111
11010000
1000001100
101100001
1111110001010011
1111110010010010
1111111111100000
1111111111101110
101
100
1111111010000100
1111100011010101
1111100010011010
1111101110011010
1111100110010011
1111001011111101
1111101000100000
1111111010111110
1111100101110101
1111100110110101
1111110001001000
1111111011001111
1111110100001011
1111111111110101
1111111111001111
1111111101110000
1111101110001110
1111011110010101
1111110100100111
1111111111000111
10000011011
1001101011
100001111
1111111001010000
1111111111101000
1111111111101001
11000
1111111111000110
1111111011000000
1111101100001101
1111110110001100
1111111001110110
1111111111011101
1111100010100001
1111111110111000
1111110101010010
1111110101010100
1111110110011101
1111110010101110
1111110011100110
1111110111100111
1111111000010110
1111101001110000
1111111101110111
1111111011110001
1111110011100110
1110110101
1111111111101000
10101010101
1100011111
1001111001
1111111111111110
111
1101
1111111111100100
1111111111100100
1111111011001011
1111111000111100
1110111000
11011110
1011000101
1111101000111010
1111110001001111
1111111000000111
1111110101011011
1111110111011001
1111110011000101
1111101000010000
1111110010010011
1111111000101010
1111111000000111
1111111110011001
1111111010100010
10010010001
1000110110
10111110010
100000110011
1111110001
1011000101
1010001
1111111111011111
0
1111111111101111
1001011
1111111101110011
101100000
10010111100
111001000
1110100101
1101001000
10011011101
111110100
10001110000
1111101100010001
1111101111000110
1111101101100101
1111110110010001
1111101100111001
1111110001101011
1010110000
110000110100
11101111010
111010000
1110111011
1011110111
1010100000
1000001010
1110011
10
11111
1111111111100000
1111101
1111111100100010
10001110000
11010101010
1111110001011111
1111110010
11000111011
1111101101100011
10000001100
1111111110101111
1111111100011110
1111100100011101
1111110100001110
1111011011110010
1111111110100110
1011111011
11100111011
100101001101
11101111001
1101010100
11010000010
10111001001
100001111
1111010100
1101011
11100000
1111111111101101
111110
10010
1111111111010001
11101101011
11001011100
1111111000001111
1001110101
11100000101
10001101011
110100001
1111110101100110
1111111110101011
1111111001000111
1111110010110011
10001001111
10000100100
11001111100
11001111010
11100100001
11111101
11100110100
11001100011
110100101
1010101101
111000001
100010
1111111111111101
0
1111111111110110
1111111111011000
110010000
11100000110
11100110010
11010100001
10101111000
1101100110
10011111101
10001010001
100111001000
11010000110
100010111
1000100011
11000000000
1111111101010010
100111111
10100101
110010111
100001100011
10010100111
1110000001
1111110101111101
1000011111
1111111110010001
1111111110111011
11110
1110
1111111111111101
1111111110011110
111010101
10111011100
10010001011
11110010001
10111001101
110000111
10011111010
10111111011
11101001010
101110110011
10111101110
11110100000
10001000100
1111111110100001
1111111111000111
1001001101
1111111001111011
10010111010
10000111
11001011
1111111001101000
11001
1111111001000100
11011
1111111111110001
1111111111100111
1111111111011111
111001
101011100
110010000
0
1110111111
10001000101
1111111111101010
1110110000
11100110110
10000010010
11101001001
1010011001
11011011110
11001001000
1100000011
100001100
110010000
11110010
110001
1111101101100101
1101000
1111111001111001
10111
1011
10000011
11010
101000
1111111111110011
1111001
10011110
1111110111110000
1111111000011011
1111111011101111
100011100
1111111001010001
10011101
10011110
1111110110110111
100110
110101100
1111111110110001
11001101000
11100110001
1001100010
1111101101100010
1111111100110111
1111111001011110
1111111100010011
1111111011001100
1111111100011100
1100
1111111111011101
100111
100
11
111110
1010110
1111111101001010
1111111011100100
1111111000001100
1111111011001111
101100011
100000101
10001010101
10001011
110101110
1001000100
1010010111
1010111000
10110001000
1101001110
11000101
1011010001
1111111011101000
1111111000110011
1111111000111010
1111111000100100
1111111001001100
110110
1010101
101110
1111111111110010
11000
1111111111110011
1111111110110111
1111111101110100
1111111100101101
100110
1100001
1000011
1111111110111001
1011110100
1111110111111111
111100111
1001011011
1010100101
11011001111
101100001
100000101000
1101000110
101010000
1111101101000110
1111100110001001
1111101110110110
1111111000100100
1111111010110111
11010001
101011001
1111111111011000
1111111111101000
11
1101
1111111111011001
1111111111110111
1111111111010110
1111111001111010
1111110101110000
1111111011101011
101101000
1111111100110011
1111110000101011
1111110010101110
1111101110111000
1111101110110111
1111100110100110
1111101011101011
1111110100111011
1111110001101111
1111111001011001
1111101101001011
1111101011111011
1111110100110110
1111111101001101
1111111101000100
1111111111000011
1111111111100011
1
1100011
100011
1111111111101000
1111111111100100
1111111111101111
1111111111010101
1111111110111101
1111111110000010
1111111100001011
1111111001100001
1111110111111010
1111111011100000
1111111101101101
1111111001001001
1111110101111101
1111110101111011
11001111
100011100
1111111110010111
1010101
101100000
111100
1111111111110100
111
1111111110011100
1111111111111101
1111111111010111
100001
11011
1111111111010111
10100
1110
100110
1010
1111111111011011
1000
10010
1111111111011110
0
1111111111110100
1111111111000011
111
1111111111010001
1111111010001101
1111111100101111
1111111101111011
100
1111
1100011
1110
11111
1111111111110100
10
1111111111011010
1111111111111100
1111111111110110
1111111111101100
