1111111111011101
1111111111111111
1111111111001011
1011
1111111111001001
1111111111101111
100010
110110
1111111111110101
1
1100
0
11100
1111111111101001
1000
1111111111100110
1111111111010100
1111111111101110
1111111111101000
1111111111111100
1111111111110110
10101
1111111111000100
1101
1111111111110001
1111111111111100
100111
10
1111
101011
1111111111110011
1111111111100111
100001
1111111111111011
1111111111011001
1111111111001011
1111111111011110
10
101
1111111110000000
1111111100101001
1111111110100110
1000011
1111111111010010
1111111111000100
1111111111010011
10010
1111
1111111111101111
1111111111110111
0
1111111111000001
1111111111101101
11011
1111111110110001
1111111111101011
10001
11100
1111111111100110
1111111110111101
1111111111111111
0
10000
10011
10011
1001
11111
11101
10011101
100111001
1011101
10001001100
10011100110
1101101101
1010100000
111100
110110
1111111110010101
1111111110100111
1111111110100100
1111111111111000
100010
1111111111101011
1111111111011110
110001
1111111111110110
1111111111110001
1111111111001001
1111111111010001
101100
1001001
1100101
10100000
1001101
1000001010
111001010
11000011110
1001011000
1010010
1111111011001110
1001000000
110000010
1101011001
10000100000
10011000011
10100111
11101001
11000
10101
11111110
1100100
100000
1111111111100110
101
11001
1110
10001
11111111
1000011000
10000111010
10010101001
11100100
1011110100
10010110001
1111010010
110001001
1111110101010011
110101110
11000111001
1111111011001100
10010111101
1101101101
100000111
111000000
111000110
1000011011
1110110101
1001110110
11011010
1111111110110011
10011
10000
1000001
10111010
110110110
11000111011
1000001010
11101100
1100
1001100100
1111111101101110
1111111001001101
1111111100011110
1111110111010011
1111011111110100
101
1101111
1111110111111100
1111100001010000
1111110010010100
1111111011000010
1111110100100001
1011010101
1110010100
10010110110
1011111110
111100
1000
1111111111011101
110
1111111111011010
101000011
110100100
10111000000
1101101001
110100101
1101101011
10011011010
11010110
1001011101
1011110000
101111100
1110011
1111111100011001
1111110010100111
1111111000011000
1111111100110100
1111100000
100111100
111111010
10011001001
100011010111
11011101101
10001000001
1000011100
11000000
1111111111111101
1111111111111000
1111111111001000
1100010
111100111
10001000010
1111111100001010
1111111010000001
10101011110
1010100110
1100110001
1111100110100110
111010010
1111111000011111
1111110010001010
1111101111010110
1111110100111111
1111001000
1111111100111111
1101100000
10000000000
1111110110001100
111111010
11101010111
10110100110
10101110010
1001011110
110111
1111111111101101
11111
1111111101101110
111010
111111011
1000111101
110011111
1000101001
1011100101
1110110
1111110001110111
1111101110111010
1111111110011000
110011110
1111111100110101
1111110010001000
1111100100011001
1111011101011101
1100
1111111001101010
1111001
101100100
111011101
1010001111
11111101101
10111110101
1010111000
101110
1111111111101010
1111111111011000
1111111111111110
110110100
111110100
1010
10110010
10001011010
11110000011
1111111110110100
1111111111011011
11111001110
1101110110
1111110001111100
1100100100
1100100011
1111110010111000
1001000010
1111110001100101
1000110
1111111001011000
1111111011011101
11101100
10000100111
101001001101
11011101101
10000001010
10001000
100111
1111111111110110
1111111111011110
11010101
1000011
1111110010000011
1111110000001101
100101100
10010010001
1100110101
1101101011
11010010
10001000100
1110000001
1110100101
10110001100
100000011
1111011100001111
1111110011101101
1110011
110111000
1111111000111111
1111111011010010
1110101000
11110100010
10001001111
111101111
1000011
1111111111101100
1111111111010010
0
1111111011001110
1111111011000101
1111101101010111
1111110101100110
1111111100101111
10110010011
101000000
10111010011
1001001111
1011110110
1110001111
110010110010
100110010101
1000111010
1110001110
1111111010010111
1111101010000101
111001111
1111100110100001
1111110101010001
10011100000
11110001100
10001111000
1001100111
1000000
1111111111101110
1111111111001100
1111111110111111
1111111001000110
1111111011111111
1111111101100100
1001000111
1001010010
1111111101111110
1111110010001001
11010011000
1111110101101110
1101010001
100000111100
100011100111
111001100111
100010100010
1111111110011111
1111111110011110
110001000
1111111100011110
1111111110100001
1111111101110100
111100011
11010011
111010110
1010100101
10
11100
1111111111111110
1111111111101100
1111111011101110
1111111101110010
1111110110010110
1111110101000010
101100011
1111111011110000
1111110111010001
1111111100010100
1110001001
111000111
1111110011010001
110001011
11011011101
10110000110
1111110100000001
1001110100
1100101101
10111000000
1101101110
11111010
1111110101110011
1111110001000001
1111111100111100
100010011
1111111111101011
1110
1111111111011011
1111111110110010
1111111111101011
1111111110001100
1111111001000110
1111111101100111
1111101111110001
1111111100010011
1111100100100111
101000011
1010111001
1111111011110101
1110000110
11001100010
10000000011
111100011
101101110
11111011111
10010000010
1010111100
1100011011
10011011
1011001011
1111101111101001
1111111001100011
1111111101101110
1111111110011100
1111111111010101
1111111111111110
1111111110010000
1111111110110101
1110001101
1111111100110000
10101110000
1111110001000101
1111101000010001
1111110011011011
1111110110111001
1111110100111011
1111110011101111
1001001000
1111110110
101000001000
11111101000
1111111010111111
1010010011
10101100101
111111010
1010101110
10110100111
1011101111
1111101101000100
1111101111110001
1111111000001000
1011
1111111111110000
100101
110000
101001111
1111010100
1111111001010011
100010000
1111101101000011
1111111100000000
1111111000001100
0
1111101001011110
1111101000110011
1111111000101000
10011100001
11010111011
1111111100101001
1111101000111010
11100001
1001010100
100010110
1111110110111011
1100001001
1101110001
1111110100000100
1111100100010010
1111110110001010
110101
10100
11110
1111111110111011
1101000101
1101100001
1111101110010010
1111111001000110
1111110100001011
1111111011101001
1111110001000001
1111101000010111
1111110101001000
1111110001011110
1101010111
1010110
1110101011
1111111001001010
111001101
10011001101
11011001100
110000100
101001000
1111101101000100
101010
1111101110001010
1111100100100001
1111111101101000
100101
1111111110111100
1111111111100111
1000101
1001111001
1111111011010000
1111111110101101
1011001
1111110001001001
1111100110101110
1111100010111100
1111110001111001
1111111111010011
1111101000000000
10011100
110011011
100001101
101110010
10000000101
111010110
11010101
1111110110110100
1000100100
1111111010111100
1111101010111110
1111101101111111
1111110011111101
1111111110110111
1010100
11110
0
11010101
1111111011111010
1111111100110011
1010011100
101101100
1111111000011100
110111111
1111100011011010
1111100010011111
1111010111010001
1111111110111011
100001010
10100011
1111111100001111
1111111010010000
1111111001000010
1111111011111100
1111110000000011
1100101
1111111100000011
1111111011000110
1111101011100011
1111110100000110
1111111111011110
1111111110101111
11010
1111111111101001
1111111110111111
1111111110011100
1111111011100000
1111110101100101
1111111100001010
1111111000100010
1111110001110011
1111111011101111
1111110011111010
1111101011011101
1111101001010000
1111110110111111
1001110101
101100011
1111111001001110
1111100110001000
1111110100100111
1111101101100011
1111101001001111
1111110001110001
1111100100011101
1111110101001011
1111011111111011
1111110000111011
1000000111
1111111111011100
1111111111100100
1111111111000111
111110
1111111100011011
1111111110001101
11000
1111111111010101
1110101011
1001001110
10110000
1111110000110110
1111111001111110
1111101111001100
1111110011001110
101101001
101111
1111110111111000
1111111010011010
1111101111001010
1111101000111000
1111100101010011
1111101110110101
1111101111011010
1111011010011101
1111010011111101
1111110100011000
11000
1111111011100101
11
1110
10100
1111111011000110
1111110100111011
1100
1111110111111000
1111110011111100
1111111000000000
1111111001011001
1111110010101111
1111101101001111
1111110101101010
1111111000000110
1111110010000011
101001011
10000001111
1111111101111011
1111101101110110
1111100010100011
1111110001011110
1111100001111001
1111010000001100
1111011100101001
1111101000110111
1111111000001011
0
1111111111011011
0
1111111111110101
1111111111101010
1001010
1111111111100000
100101111
10111110
1001000101
10000001
1111110110000001
10100000
1111110001100110
1111101000000000
1111110111011011
10000
1111110110000110
10001110101
1110110111
10010000011
1111101101101001
1111101011100000
1111110110100011
1111110100011100
1111111000111111
1010011
1111111110110000
1111111101100111
1111111111110100
1111111111110011
1111111111111100
1111111111110100
1111111111111010
10011101
100100011
111000100
10110011110
11101111111
11000100000
1111111110010111
11000011101
1101010010
1011110100
10100011000
1111100011
11110101111
11000101101
101100001010
11001101011
100001001011
10011111010
1101110110
1111111111100000
11111011
1001000
1111111110010010
0
1111111111010101
1001
1111111111110010
11101
110001
1111111111101100
1000011
11001111
111010000
1100000101
11100101000
10100011110
10100111010
10110000101
11001001101
100000110011
11111110011
11101010111
11100010011
11101010000
11101010110
10110101010
10011011010
1010000011
101001100
1001
1111111111100110
11011
10000
110011
1001011
1111111111000011
1111111111101011
1000
0
100110
1111111111111011
10011101
111011100
10101001
11000010
1001110
110100101
110110110
11111111
110000111
111011000
110010110
11010
101011110
1001111101
100000100
1100
1111111111101110
1111111111111111
1100
110101
1111111111101101
1000110
11110
1001
1111111111010001
1111111111110100
10
1101
1111111111011010
111011
111100
10011
1111111111001100
110000
11010
1111111111110011
1111111111101101
1111111111011110
1111111111110100
1111111111100111
11111
1111001
100001001
101011
1111111111110111
1000
1111111111111011
10000
