11010
111000
11001
1100
0
1001010
100011
1111111111010110
1111111111100111
10001
1100100
1111111111011001
10000
1100
1010101
1111111111011011
1111111111010100
11101
1111111111000111
1111111110111110
1111111111110011
10001
1111111111011100
10100
1111111111111110
1111111111111100
1111111111101110
110100
1111111111111110
1111111111111101
11101
101010
1
111000
1000
101101
1111111111110100
1111111110101101
1111111111011100
1111111111111101
1111111110110010
1111111111111101
1111111001011000
1111110011111111
1111111110111000
1111111110110111
1111111111011010
1111111111000010
1111111110101010
0
1100
11001
100101
1111111111111111
1000
1111111111010001
1111111111000111
1111111111111111
110010
1111111111110001
11
101001
1111111111110010
1111111111101001
1111000
100001111
1111111101010011
1111111001001000
1111111011000010
1111111100101000
1111110110001011
1111110110001000
100000101
1111111110101100
1111111001101010
1111111100100000
1111111010101010
1111110111000110
1111110111111010
1111111110100111
1111111111110101
1000101
1111111111110110
11100
1111111111010110
1111111111011111
1111111111111010
101011
10000
1011001
101011
1111111111010000
1101100
11011001001
11110001111
10011010111
1111010011
1110010
1111111001100001
1111100110110101
1001010
110111000
1111110110100010
1111110111101100
1111101101001101
1111101100011000
1111110100101100
1111110100110101
1111111110100001
11100100
110
1111111111111000
10110
1111111111110111
11010
1111111111011100
100011
100110111
11011011
1111111001001010
1111110110010110
100101
1000101011
10011101010
1111111110101100
1111110111101001
1110101010
1111111010001101
1111111110011110
1111111001100111
1010000001
1000100101
110010100
1111110101001011
1111111010111100
1111110100010110
1111111000110110
1100011
1111111111011011
1111111111011001
1111111111110100
1111111111101101
101011
10
10001100
101100100
1111111110010010
1000110100
1011110
1111101111111011
1111111001010110
1000001
101110
11011011
1111110101110100
1111111110000000
1011001011
1111100010110100
1111111111110100
1111110110000001
1111111111011101
1111111101111001
101110101
110100010
1111111100011001
1111111100111111
1111111111110000
1111111111110100
0
111
1111
1111111111001011
101101001
1111111110111001
1010001
1111111100110110
1111111100110101
1110110000
10001110110
1111111011011111
111010
1111111111110010
11000101000
1111011000
1101100001
1111111011111101
1001111111
1111111101101101
1111111011011100
1111111111000100
1111110100110111
1111110011010101
1010111000
1111111011001111
100110010
10000100
1111111110111010
100110
1101111
1101000
110011000
1111110111000100
1100000010
1101101010
10100010011
1111110000
110011111
1111111111011000
1111111101000110
1111111110000111
100100101
1111110000110101
1111111101011001
1100000011
1111111110110010
11111111110
10101001100
1000010001
10100101011
1111110110000110
1111111011011010
1111111001110011
101101111
1110101
10000
1110
1100001
1111111111011110
1001011111
100101111
1111111110000110
1111100001
11101100
111101001
11111101100
11001100101
1111111010110001
1101000100
10001010000
111001
1111110001010110
11000100
1111111001010011
1010001111
1001001000
1111110111010011
1111111111100001
1001101000
1111110011110011
1001111
11101011
1111111111110100
1111111111111100
101
111001
1111111010110100
1010000101
11101111011
1111110110001111
10001110010
1001101001
10001111
10011110000
1010010001
10001011100
1111110010000010
1111110100101001
1101000100
1000110000
1001010110
1100101010
1111110110110000
1111110000010000
1111111101011001
111001001
1111110011011010
1111110110110010
1111111110111001
110000000
10101010
1111111111101111
1
1111111011101111
1111110010001101
1111111001111000
1100101111
111011110
11011110010
101100100000
1101001000
10110011011
1111110110010111
1111110110001111
1111111011001100
1111101000111100
1101110
1001110100
1011101
1111110100000100
1111101110110110
1111110001101110
1101
1111100110011010
1111001111101010
1111111010001001
1100101100
1010101101
10000110
1001
10100
1111110101111111
1111110010111111
1111101000111100
10011
1100100011
1111110000011011
1111111100110100
1111101000000001
1111011100100011
1111101100001100
1111001000001111
1110111111011010
1111011000001011
1111110010011110
1111011010011000
1111100110100111
1111101001111101
1111110111010001
1111101100011110
1111110110110100
1111100110110100
1111100000101010
1111100100110111
11101111
100001000
1101
1111111111011001
1101
1111111001011111
1111101101010100
1111011101111001
1111011111100110
1111011001001011
1110111110100000
1111000101011001
1110001110110001
1110001000100000
1110110010011101
1110011101100010
1111000100001001
1111000111111000
1111111011001010
1111110010011111
1000000100
1000
1111101010011110
1111101000111011
1111101110100101
1111011011001000
1111011110100111
1111101110010011
10000001010
1111111111001110
10110
1000111
0
1111111110111001
1111101001100010
1111001100111001
1110111000000000
1110011101101101
1110000101111110
1101111101101111
1110100110100000
1111011110111111
101100
100101111
11010001000
1111111011010010
1111101110110010
1111111011000110
1111111110000000
1111111000101111
1111110101001010
101010011
1111111100011111
1111100010110110
1011011110
11011111000
10010100001
1101010010
1000010010
1110
1111111110111111
1111111111100110
1111100101110001
1111010100011100
1110111111110000
1110111010010100
1111001110001000
1111101110111100
11110001011
11111101110
1100101100
10010010111
111011111
1111110110111001
1111111010001011
1111110011000100
1111110100010001
11100001100
101101000
1111101110011000
1111111100110101
10000110
100111100
10100001100
10100100010
10100111010
111111
101110
1111111110010110
1111111110000111
1111110001111001
1111100110111100
1111111101111110
1001001110
10101011000
11001101010
11010001001
1101011101
100111100
110001000
11000100110
1111111010010101
1111111110000011
10100100
1111100111101011
110010111
1111110101000110
1001100000
1100010000
100111000
1000110111
10101111111
10010000100
10010101101
11100
101111
1111111111011001
1111111101110010
11100
1111110000100010
1100110
1100011000
10011100101
1111111001100010
1011100000
11010111010
1011111
1111011001
10101101100
1111111100100011
1111110010000001
110100110
1111110111110100
1111111101110110
1101000101
1000111
1101001101
101110000
1110100000
10011100111
11100010011
11100101011
11001010
101011
1111111111011100
1111111110000110
10101110
1111111011111110
1111111110101101
1010100010
1110000
1111110010000111
1010101101
10010101111
1111111100011110
10111000011
1110011000
11110001
11000011
1010100
1001010110
1111111110011110
1111111001010000
1111101010001011
1111111111111000
110101000
1111110011010111
101110101
100001000000
10111111001
10011000
1
1111111110111101
1111111010000110
1111111100001100
1010111010
10011111100
1111110110010110
1111111010110111
1111111100001011
1111111010001101
1111110100001111
10110010
10000011010
1000010100
1111111111010101
1111110000111011
1111111011010111
10001010
1111111101000000
100010
1111110001100010
1111111010100000
11111100
1111110110100110
10110111001
11101110011
110010101
10111011
1111111111101111
1111111111010001
1111111110001001
111011
10101001111
1000111011
1111111000010010
1111010010
1111111001101111
1111111101100011
1111111101100010
1010011011
1111110011111001
111010111
111110110
1001000111
1111110001001110
1111110101101000
1111111001110011
1111110110001011
1011001110
100100101
1111111111000011
101111
10000100010
11111000001
111110111
1110000
1111111111010000
1111111110111110
11110111
10100001100
101000000010
11101010010
10000111011
1010011
10000100
1011001010
1111110111000001
10000110010
1111111101111001
1111111000111111
1111111000100001
1111111000011111
11010000
1111110100011110
1111110111101101
1111111100001111
1111111000000001
110000000
1111111111101100
1001000111
1111111111110011
1000001100
10110100
1111111111101001
1111111111110010
11011
111110001
10111111110
100110100101
100000010010
1111111110100000
1110101
1111111011111000
1011100
101000110
1111111110100101
1011001101
111011
111101111
111011011
1111111111
1111101110
11000101111
10110
1111100010101110
1001000111
11110000
1110100001
1011001101
1101011000
1001010
10
11000
11000
11110110
1001010010
11000011000
11110011011
1111101101100010
1111111001010111
1000000001
110011
1111111110011000
1111111110011011
1111111110001101
1111110100101001
1110101001
1111111100011010
100011100
11011001
10011110010
10000010011
1110001111
1110001
1010100
11010001
1000100100
100000011
10
11000
1111111111101100
110101
1001
1111111111001010
10101100100
100100010010
10000010011
10001000
1111110101101111
1111111011010101
1111101100101000
1111111011011101
1111110111110101
1011001100
1111111111111111
1111110111101110
1111111111000011
10
100010010
1110001100
1101011001
1111000101
1001110111
1100101
101011101
11110111
10
1111111111101011
101011
1010
1111111111101001
1111111110111011
11001001
110010011
1111110011111010
1111111001110000
111111101
10100001000
1111110101010001
10110011
1111110110111100
1111111010011111
10011101
111011
1111110100001010
1111111100001110
1111111010001001
1111111011001011
1011001
111001100
111010110
1111111100100001
1001001101
110001001
100010
1111111111100100
100010
101111
1111111111110010
1000011
110001100
10100110
1111111010001001
110110
10001001111
1000011
1111111101100110
1011001
11000101101
110000001
1111111111011111
10011110101
1111111010
1111111001001000
1111111000010001
1111101111011100
1111101101100100
1111101010111000
1111110110101100
1111111101010101
110101
111010
1000010
1111111111101000
1111111111100010
1101
1111111111111001
1111111110101011
1111111111011101
1111110011110011
1111110100110110
101001
100101
1111111111011010
1010010000
111110000
10000110010
1111111110011001
1000011111
10001100011
10010100010
1110
1111111001001101
1111111100111010
1111111000001011
1111110011001100
1111111001000011
1111111111111111
1111111111001110
11101
10001
1111111111110001
111110
10101
1111111111011011
1111111111110011
111100
11000
1111111111111111
1000100
1111111111110011
1000101
100001
110011
11000
1111111111100100
110110
1010011
110010
11000
1111111101100001
1001111
1111111101101001
1111111101100011
1111111000011001
100111
1110
1111111111101000
1111111111010111
1111111111101110
