1111111111100001
11000
1111111111111100
11110
1111111111101100
101101
1111111111101110
1111111111101001
1111111111100101
1111111111110110
11111
1111
1111111111110111
1111111110111110
10110
1111111111110111
1111111110111101
1111111111110111
1111111111100000
1111111111101000
110000
11110
10111
1111111111101010
10001
1111111111111001
1100
100
1
11100
1111111111011101
11011
10
10001
1111111111001111
1111111111110111
1111111110111110
1111111110100000
1111111110111010
1111111110011011
1111111110001001
1111111110101010
1111111100010101
1111111011011001
1111111110001101
1111111101111111
1111111110110101
1111111110001110
1111111100001010
1111111111001000
1111111111011111
1111111111001100
1111111111110101
1010
1111111111111101
1111111111001101
10101
10111
1111111111010011
110
1111111111110010
1110
1111111111101011
1111111110010010
1111111101011101
1111111101011101
1111111001010111
1111110111011110
1111110100111011
1111110110101000
1111110010111000
1111110010111000
1111110001101000
1111101110000010
1111101101000011
1111101111110000
1111110010001011
1111110111011100
1111111001111011
1111111101010010
1111111110111001
111
1111111111101000
1000
110110
1111111111110000
100100
1111111111001110
1101
110100
1111111111011100
1111111111111111
1111111111101111
1111001
1110001010
10010010000
1101100001
1111111110101001
11100000
100000110
1111111001101001
1111110111101000
1111101011101000
1111110000011001
1111110011100111
1111110001010001
1111101101100100
1111110010111100
1111111100000000
0
1111111111100101
1111111111101000
10
100000
1111
1001101
1000100
1100000101
111011101
1010010100
10011011101
1101101011
10010111100
11010011110
1111111111110000
110100010
1100011100
11011111011
1111110011101111
1111111011001001
1010010011
1101110010
1101110001
110010110
1111110111110000
1111101101100001
1111111110001111
1001100
1111111111101000
10111
1111111111110111
11101
10010
10001110
1001110111
10100110111
1011010110
1001111100
110111000
1111110101101000
11000000
100101111
1111111111010100
11001111110
10000011001
11010000010
1101011010
100001000
1010110011
1101011001
1110111110
10
1111101100111001
1111101100010111
1111101101011010
1111110101011111
1111111110110101
1111111111011101
1111111111111010
1111111111110110
11111
100011111
10000010011
11000110111
11100001100
1000101001
1101100101
111111001
1001110000
10110010101
1111111001101010
101101011001
100010101110
10010111001
1111011001
1111101011001100
1111101111001000
1111100110111101
1111100111111111
1111110100000010
1111100111110011
1111011111010110
1111100110010111
1111101010110011
1111111110010000
1111111111100010
1111111111111001
111011
1010100
1100111010
11010110000
10011010111
10110111110
1101010110
11011101
1111110011000110
1111111000011001
10001011110
100110101011
10100100110
110110000
1111101011100001
1111101101001111
1111101110101001
1111111100010010
1111110101101111
1111101010110100
1111100011101010
1111100111000101
1111110011101111
1111110000011001
1111110000000010
1111111111000010
111
1000010
111101
111111
1010110100
11110100011
10001010000
101110100
101111111
100011111
1111111110100011
1001011111
1111111010001000
1100001011
1111111000001110
110
1111110001001011
1111111000110000
1111111011011100
1111110100010101
1111010001110110
1111111010001110
1111110100101110
1111111000011011
1111111101111111
1111111110010011
1111111000110011
1111111110101001
10111
111100
1000100
1000010
1011011111
11101011011
11010100000
10001111101
11000111100
11001010010
1000110110
1110011111
1111111100101011
1000100001
10000100110
11001101000
100010000011
101011101
10111111010
101001101000
100110000111
11110001010
1001110010
10111001000
1000100001
1001010001
110100
1111111110101111
1000111
101
101010
100011
101010111
1101000100
100011000010
10101011101
1110100
1111110100000011
1111110110011110
1111110011001001
1111100101011110
1111011010100110
10101101010
101100101010
101101110110
101110000101
111001111111
111000100110
111011011110
110011001001
100110010110
100001011100
10000111000
10000000100
1001010001
111101
1100100
1110
1000010
1111111101100100
101110100
10011100100
1101111000
1111111010010100
1111100011011011
1111110101111101
1111100100010000
1111011001011111
1111111011011110
1111100010100011
1111111000001011
1111110001100101
101000011
101111
11100100011
10011100100
110101000000
101011011000
10100000000
11011001011
10110101111
10111000101
1011101011
1111111111101101
110010
100
10101
1111111110001110
1111111111100000
111000101
111000000
1111100101110000
1111101010011010
111110101
1111110001001100
1111101101100001
1111101110000111
1111101100100010
1111101001001110
1000100001
1111111101111000
1111111001101101
1111101111010000
1111110110100011
1011111111
1001011000
1111110111011011
10111000101
1010100110
1100110100
1000111110
1101101
1111111111110101
1111111111101000
1111111111100010
111001
10101010
10011000010
101011110
1111111100001010
1111101000000001
1111111100001110
1111110110001000
110110010
1111100101010010
1111111001010010
1111101001001111
1111111001000010
1111100101111010
1001011
1111110001101000
1111011111111011
1111111110010000
1111101010101010
1111111011110101
10000011110
10000001100
1011110001
11010110
1111111111000010
1111111111101010
1111111111100101
1011
101000
1111111111101101
101011011
1111110010011000
1111110011011000
1111110101010100
111
1111110101110011
1111111011111111
1111011111110000
1111111110001001
1111110111011011
1111011010111011
1111100001111001
1111111010011110
1111111011000001
1111111010110111
111101011
1111100111000001
101011101
1001111010
11001001100
10010000
110011100
100001001
110111
1111111111001011
1110
1111111101101101
1111111001010011
1111111011011111
1111111101101111
100000111
1111110100011100
1111110101110101
1111110000011010
1111110000000110
111
1111111111010001
1111101000110010
1111010100001011
1010111
1111110000111100
1111111000011000
1111100111100011
1111111101101101
10100000010
110010
1010101000
10000101100
1001100011
1111111111001000
1000010100
1111111111101100
10110
0
1001001
111
1111111011101001
1000101100
10001000010
1111111100100101
1111111101111000
111100101
1111110000111111
1111110100011101
1111101100101101
1111011100100100
1111100111011011
1111101001010101
1111111001011110
111010100
10000101100
10111010111
101100110111
1001101001
100100110
111011001
10000010
1111111000100100
110010111
1101
1111111111010110
1111111111100011
10100111
1111111111101011
1111111110101011
1111000010
10111110100
1110111111
101101110
1111111111111111
1111110101010111
1111011110100111
1111110001100011
1111110011111110
1111111001110000
110110
11000000110
101100101110
10000001011
1011101110
11010101
11001100
1111111001100011
1010000000
1111111110100011
1000101101
1000000100
101010
110
1111111111010111
1001100
101000111
10100010011
10001011010
10000100001
101001000
10100100111
1111110111011101
1111110111111101
1111111100010011
1111110101111001
1111101100101000
110010001
11010010001
11000101111
1001100101
100000101101
1111100001
1111011000
11001001010
1010111001
10111101110
100001100
1001101101
10110010
1111111111101011
100011
1111111111111100
11111010
10011010101
11110110001
1000110010
111110111
10000010000
100011000
1111111111110110
1110110000
1111111010100111
1111111100011011
1111101100011100
1111111011000101
10111000110
1011101011
1101101110
11111111001
10000111101
11010111001
111110111
1111110110000101
1101001001
10011010
111100111
1111111111110100
1111111111011011
1010
1111111111110001
11110111
11000000101
100010101001
11110
1011111
1111010000
1111111010111000
1100010000
1000010010
1111111001110000
1111110100011001
1110100001
110001101
1111101100010000
1010001001
1100011111
11011110110
1111111011101010
1000111000
1111111011101101
1110101
101001000
1111111110001011
100100110
1111111111001011
1111111111110101
10001
11011
1100100
101001110
10010111010
110101001
1111111110111001
1111110111100000
101001011
1111110001010101
1111111011111000
1111100111100000
1111101110101100
1111100001011011
1111110111110101
1111101
101111010
1111100010011001
1111101100111011
1111111000010010
1111111001000110
1111110100010001
1111110110000110
1111111110110101
111001101
101111000
110001
100
111
1111111111100111
1010101
1111111110010010
1111111101111110
1111111001000101
1101000010
1010111101
1011001001
1000010100
1111111110100001
1111111010000011
1111111110110100
11100
1111101101101010
1111100101011110
1111101111011100
1111100010100011
1111110011011000
1111110011110110
1111110110110110
1111110100100001
1010000
10110
110000000
10110111
1111111111011101
101111
11101
111001
1111
101110011
1001110111
1111111011011100
111111001
11100110100
1101100110
1011011101
1111111001011111
1111111100000000
1111101001111000
100100000
1111110010011100
1111101101110010
1111110000000000
1111111000111100
1111111001101000
1111100101011100
1111111111011010
1111111100101000
1001
1111111011110101
11010110
1110
10000
10100
1111111111101110
1111111111100011
1111111111101100
1001010010
10000011110
1001011011
1001010010
1001100110
1111111100111010
1111110001010010
1001111110
1111111100100011
1111110010011110
11110110
11000101
1111111001010001
1111111111000011
110110110
1111101010010001
1111101011010000
1001110110
1001011100
1111111011010000
1111111010011111
1111111101101100
1111111111010110
101101
0
10101
10101
10010
1111111111000000
1000100101
1110110110
10000101011
10001000010
1011111000
100111100
1111111111111101
111101111
1111111010101001
1111111001101010
1111110011100111
1111110101001110
1111111110100111
1111110110001010
1111110101001000
1111111110110001
1111111111111001
1111111110011001
1111111011011000
1111111101100101
1111111110001011
100101
100101
11011
11000
1000
11000
1111111111100101
110001
11110011
1001100001
1000011010
1000010000
100010111
1000010011
101011010
11100100
10001000010
11011010000
1010011111
11100110
11000001
101010000
111011010
101001110
11110001
1111111110101011
1111111111101010
1111111111111000
1111111111011000
1111111110100001
1111111111110101
1111111111100011
1111111111111011
100111
100111
11010
1111111111100011
1111111111111001
1000011
111111
1100
100010101
1001110
1111111111101001
111001
11000001
1111111110010000
1111111111001110
1001001
1111
1
1111
110000
1111111111000000
1111111111100111
101101
10
1111111111011010
1111111111001111
