101010
1111111111100101
1111111111000100
1111111111110101
1111111111101110
1111111111101111
100101
1010
1111111111100001
1011000
1111111111110011
111001
1111111110101101
0
1111111111000000
1111111111010001
1111111111110010
1111111111100100
10111
100000
101
1111111111001011
100000
100111
1111111110111111
1111111111110101
100010
1111111111110001
11
1111111111101100
1111111111101101
1111111111100001
1111111111110101
1111111111101001
10
101011
111100
1111111111001110
11101
1111111111100110
1111111111101111
0
1010
100010
1111111111011110
1000
1000
1111111111011111
1111111111101111
1111111111111100
1111111111101100
100001
1111111111100101
1111111111111011
110
1111111111111111
1001000
1111111111100110
11000
1111111111110110
1111111111011100
101001
1111111111100110
1111111111101101
1011001
1
1111111110010011
1111111101110011
10011011
101111011
11011000
1111101
11101010
1010110
1111111110011111
1100001
111111
101000
11110
1100
1111111111111111
1110
101101
1111111111001101
1111111111110000
11110
1111111111010100
111100
1111111111101010
10
1111111111110001
1111111111110111
1111111100000100
1111111111010100
1111111110011101
1111111010001100
1111111001101000
1011010011
1110101011
11011100111
1010101010
1101
1110101111
1111100001
110100000
110011010
100111000
100010000
1111111110101010
1000110
10011
100000
100101
110100
1101
1111111111100111
1111111100101100
1111111001001100
1111111100011010
1111111001111001
11
100110000
1111111000010110
1111110011010001
10011001
1000000111
1011111111
1111111000111010
100000101
110000
1111111001011001
1101101
1101010001
1111011
1111101111101110
1011000
1111110110111011
1111111010111011
101001
0
1111111111110110
1111
1111111111110010
1111111110111000
1111111010001011
1111111010101111
1111111100011101
1111111111111001
1111111010111001
100101110
1111110111011100
111001110
1111111011111011
1111110010010100
1101000110
10001101010
1111110111110000
1111110101010011
1101001110
1111111101010101
11100000
10111111011
10010101
1111100110001000
1111110000001001
1111110110010110
1111111111001011
1111111111111011
1111111111110100
1111111111000110
1111111010001110
1111111000001101
1111111010001001
100101
10101000
110001011
1111110000100111
1111111000010101
10111
10010011
101111
1111101101110001
1111111110000011
1111110110010101
1111101100000011
1111111001101110
1111110110010011
1000000011
1111110100101011
1111101111011000
10101000
1111101110010001
1111011001011001
1111110100011001
1111111011011110
1111111111111100
1111111111001100
1100
1111111101001110
10010111
110000
1111111101011001
110101100
1111110011
1111
1111000101
1111111100010111
1100000000
1111111010011011
1111111000100001
1111111101101101
1111111110111100
1111110111010110
1111111110111010
1111111011011101
1111110011010011
1111101011001100
1111100101101011
1100000
1111111001011000
1111101110110100
1111110010110111
1111111001110110
111111
1111111111100011
1111111111011100
1111111111111000
1110010
1111111100011110
1111111100100011
1010010001
100111
11000011
1111110011000110
1111111101000011
1101010101
1001000010
1111110010001001
1001111101
1111110110110011
1111101001100001
1111101100011100
1111100011001110
1111110100101001
1111111
1111110011011001
1010100
1111111101111001
1111110110001000
1111101110100101
1111111011010000
1111111111100110
0
10010
1111111101010010
1111111011101110
1111110000100110
110111001
1111110110100011
1111101111110111
1111111111011111
1111111001001100
1111111110001001
10000100110
1111111001111011
1111110111100110
1111111010010011
1111110101111000
1111100100
1111101100
1100000110
10110101001
100011110
1000010110
1111111100011100
1001001110
1000111
1111110100111111
1111111110100001
1100
1111111111110001
11010
1011010
1111110011110101
1111111101001111
1011110011
1111110100110110
1110010
1111111110001010
10101111110
1111111000101111
1111110010111101
1111111000000110
11000010
10000000000
11010101101
11101110111
100100001011
10010001100
11110101000
1111000100
1111111001
100010101
10110101000
111101011
1111111100010110
1111111110110111
1111111111110001
1111111111101110
1111111111101001
1011010
1111111011101100
1111111100101100
10011010010
1100011110
1101010000
1011101111
1000101110
1111111100110010
1110010110
1100101111
1111111000100101
1100001010
10010110
1111110010000010
1111111011111100
1111010
1110010000
11111010
11010101101
10111101110
10100010111
1110001110
10101
1111111110001001
1111111111110100
1111111111110000
100101
110000
1000011101
10110111
1010101101
100111100
1011010010
1111110111010000
11111100
1111111000001000
111000011
1111111
1111111111100100
1111110011100010
1111111111000001
10010100110
1111110000110010
1111101100111010
10010000001
1011101
11001100011
10110011101
11000011111
10010000100
10001001
1111111111101010
110000
10011
1111111111100011
1101
110011111
1001101110
1111110101001010
1111111110000110
1111100100
10010111110
10101110001
10010010
1111111001001000
1111111100001001
1111100101001000
1111101001110000
1001000110
1111110110000001
1001110110
1111101111011010
101011011
1111111100101010
100000011
10100101100
1011000111
1100100010
11001001
1111111111101011
100000
100
1111111101100111
1111111111100011
100110011
1110011001
11101001
1111111100101011
111100101
1110100
1111111001111010
1111111110101001
1111111110111010
1111100100101110
1111110110010001
1111110001110100
1111110000100010
1111110000010001
1111111111110010
1111111111011100
1001001011
10010111011
10000111
1101100100
1111110101000100
10101100
1010101110
1111101
100101
1111111111100111
1111111100100110
1111111110001000
101111111
10010001010
10010110101
101010011
1011101001
10101111
1111110110010101
1111101000000101
1111110000000110
1101100
1111111010011111
100100010
1111110111111000
1111100100
1111011110
1001110001
10110111
1111101111100110
1111110100011010
1111110100001010
1111101111100000
1001100
1110111101
1111111110110001
1111111111100010
1111111111110100
1111111101110011
1111111011110101
11001111
11100000101
101100101000
101001111010
101111110010
10010111100
1111111010100101
1111100100011010
1111101100000101
1111100100001100
1111011110010001
1111111100100111
1111111000111101
11001010000
1111111111
1111110011001100
1111111111100001
10101100
1111111100001010
1111110001111100
1111101101100110
1111111101010001
1100010010
111111010
1001000
1011
1111111111100001
1111111010100110
1111110110011010
10101001010
110101101110
1010110101101
111111100001
1011010101001
1010111001111
111011011110
10010111
1111111100100001
1111101101001111
11011010000
1011001101
10010000101
1101000
1111110011010110
1111110001101101
1111110101011010
1111111111001100
1111111110111001
1111110011000000
1111111111001000
11110100
11110000
1111111110101010
11010
1111111110000100
1111111011001101
1111110001001100
1011010111
101001101101
110111100111
1000001011100
1100101111011
10001000100011
10001011000000
10011010000110
10000101100101
1010100011000
111100010001
10011001000
1111101001111001
1111101110010010
1111101110100110
1111011100001011
1111101000111001
1111100100010010
1111100110010110
1111110001000011
111011101
1111111111100001
1001101
1111111111101101
1111111110111011
1111111111010011
1111111011110110
1111101111101011
1111111101100000
1111111110001111
1110100001
101001111
1000100010
100001110010
101011110010
100101010110
101001001110
100111110111
11010000010
10011110110
1111111011101000
1111111011110011
1111101001010100
1111111110101110
1111110111010000
1111110100011011
1111101110101010
1111110100111000
10000011
101001
100
111110
1111111111100100
100001
0
1111110000000001
1111111110110001
1111110000111000
1111110001100001
1111110001111110
1111110001111111
1111100000100010
1111101000011110
1111100101101010
1111111110111101
111011001
1111101000101001
110100
10000101110
1111111111110000
1010011110
1111111100110011
1111101111110101
1111111111110110
1111110111110110
1111111111100111
11110010
1111001
1111111111110101
1111111111110111
1100
1111111111110001
10101000
1111110001001010
1111101001010111
1111101101110101
1111111110111101
1111011111000110
1111110001111111
1111111011011000
1111100111111101
1111110000000010
1111101101100111
1111101100111110
1111110110110011
1111111001
10000011101
11100100100
100101110
100001110
10010011
110000011
1100011010
1111111110110001
1000101110
111000101
101
10001
101000
110
11011010
1111111011000011
1111110011001001
1111111011110101
1111000100
1111101111111110
1111101110011100
101011110
1111101101001111
1111100100001010
1111101111010011
1111110011000001
1111111011100001
1111101110110101
1111111100011000
110000110
10000010101
1111110110111101
1111110001111000
100101000
1111111111010011
110110
1001111111
111101010
1111111111110010
11100
1111111111011111
1111111111100100
1111111101011000
1111111010000100
1111110110011100
1111101011111000
1111101111111101
1111110001100010
1111101000011011
1111111010001011
1111100000000111
1111101000010011
10110000100
1111111000100010
1001001010
1111110011101110
1100001
1111111010010000
1111111100010101
10010011011
1111111001011101
1100111001
10111000
11100010
101100010
101010111
1111111111011110
1111111111101111
1111111111001110
1111111111111011
101001
1111111110000000
1111111010000011
1111110010001001
1111011101000100
1111100011011000
1111111101111100
1111111011000010
1111100010001010
1111111000000010
1111110000001000
1111110110011100
1111110001110010
1111111100101100
1001110111
1111101011110001
100111101
10110110000
1101111
1001011
1111111011010110
11001000
11101110
1100111
1111111110110001
100110
100001
1111
1111111111010111
1111111111110011
1111111011111100
1111111000001100
1111110100011101
1111101100111111
1111100011101001
1111101000001000
1111110100111101
1111110100001011
1111111000111101
1111110010111110
101001011
101011100
1111111100111001
1111111010100110
1111111001000101
1111110010110011
10110
1111110111001100
1111110110010010
1111111110010001
1111111111100011
100
110
11000
1111111111100011
101011
1111111110111100
1111111111110111
1111111110110000
1111111110111001
1111111110001011
1111111110110111
1111111111111110
1111111100110011
1111111101111001
100100
1111111010000001
1111110001001000
1111110111101000
1111110110110001
1111110101001000
1111111010110001
1111110111001000
1111111011001101
1111111100101101
1111111011001100
1111111110110000
1111111111101000
1111111111101011
110
1111111111111011
1111
1111111111000010
1111111111111110
1001
1111111111111110
1010
1000
1010
1111111111111110
1111111111100001
1111111111101100
1111111111111011
10010
1111111111111010
1111111111001001
1111111101111000
110111
1111111111100101
1101
100001
1110110
110110
1111111111100010
100110
1111111111010101
1111111111110111
1111111111111000
101000
1111111111110001
