1111111111110001
1
1111111111100010
101
110011
1111111111100011
10000
10001
1111111111100101
1101
101
1111111111110010
1011
1111111111110011
100101
100101
11110
1111111111111111
1111111111100110
1111111111000001
1010
11011
100101
111110
1111111111011010
1111111111011011
1111111111110111
1001010
11010
1111111111001101
1111111111111011
10110
10011
1111111111111101
1000
1111111111111110
1111111111010000
11100
11000
1111111111101001
1001
10001
110100
10110
1111111111111100
1111111111110110
101111
111101
10110
10101
1111111111010110
1111111111000100
1000
1101
1001
1010
1111111111110101
1111111111111110
1111111111111011
1111111111011100
100000
1010
1111111111100011
1111111110110111
1111111110001010
1111111110101011
10000001
1010010
1110
10011110
1000101110
1001010100
10011001
1111001
11111111
101001
1100
1111111111101111
100011
1111111111011110
1111111111010100
101
1
1111111111000111
1111111111111011
1111111111000111
1111
1111111111101100
1111111111111110
100110
1011111
1111111111010110
11000111
1111010
101100111
1101101011
10100111101
10100000011
100001001001
10011010100
1001010111
10001110110
10101101100
11010111
1010000011
1000011101
11100000
10000010
11110
101001
100001
1111111111110000
101100
1111111111111000
10101
101011
111111
11100101
10011010
101010
1011001
1000011010
101011110
1100100100
1111101100
10010110010
10110001010
11010100101
10110000100
1111111100111010
11000101
1000000000
10100011111
10010000001
1100110100
100001111
101110100
11100010
10110
1111111111111101
1111111111110100
1111111111100000
1111111111111000
1001100
1110111
100101000
1001110
1111111010000001
1111110011001001
1111110110011010
1101100011
1010111111
110111001
1110011
1111110100011010
1010011110
1101110
1111000100
1100011111
11111010011
10011010111
1110011101
1001111100
101111110
1000001011
1000001010
11010001
1111111111111011
10010
1111111111011010
10011101
11000001
101001
1000110011
10101100
101110110
1111110100011100
1111110001110011
1111111100110111
1111111110001011
1111101111100111
1100011101
1000110100
11001111001
10001100011
110010011
1001011001
1011000000
1111111110001101
1111111011011000
111001111
100010001
10100100101
1101010111
111100001
1111111111110011
1111111111110111
1111111110011110
1111111111000100
1111111011100010
1111111101011111
101110
1000100001
1111111011101001
1111111101100111
1111101110000000
1111111001101111
1111111011101001
1111110100
1000011100
1111011001
100001101100
10100100
10000000001
1111110101100110
111010101
1111111001010100
1111110110000001
1111110000010000
1111111010011101
11000111010
10011110011
111111110
11111
11001
1111111110010010
1111111110011110
10011111
1111111110001011
1111111111110100
111110
1111100100010000
1111101110010011
1111111001011101
1111101000011001
1111110100000000
1111111010000100
1110001011
1111001000
1000001111
1001000111
10001
1110111010
1111110101100110
1111110110101000
11101
1111110000110100
1111111110011110
11101010100
1101010011
11011001
10100
1111111111101111
1111111111011100
1101101
10101010
1111111001010111
1111101100101100
1111111000011100
1001010
1111100111101010
1111111110111011
100101011
1101111101
10001111011
1111111100101011
1111100001001010
110010001
111111011
1111110100011101
1111110110110001
10110111
1111110110110110
1111111100011000
11001100
1111111110001000
10010011111
1101100111
100000110
1111111111101011
101
1111111111001110
1111111100110100
11110100
1111110101100110
1111101011010011
1111110110001111
1100100011
1111110111010000
1111111100111100
1111100110010001
1111110000010111
1111110111110000
1111101010110011
1111001000
110001101
10001110100
1111111100101111
1111111000101011
1111111100101111
1111111101101111
1111110101011110
1111111110110100
1111111110000001
1000010
1010010010
11111110
1111111111100011
1111111111010001
1111111111111100
1111111100001110
1111111010000111
1111100001000100
1111110011100110
11111001
1111101000110011
10000001100
1111101011100111
1111110010101001
1111011010110100
1111111111111111
11001011011
110101110000
10011101000
1111110001110100
1111101111110100
101011001
1111101100100100
1111110011111100
1111110100001000
1011010111
1111111111101001
1111111010111100
100010001
1001111
1111111111001000
1111111111100101
111011
1111111101001011
1111111011110010
1111101101100111
1111110010011101
1000
1111100000000010
1111011011101010
1111101100101001
110001
100110010
10010001011
111000000111
11010110011
1111111111101000
1111110111110000
1001011100
1111111100001011
1111111011101001
10011111
100001000
10001111100
10001000000
1111111000100101
1111111001100010
1111111101110001
1111111111001011
1010
1111111111010000
1111110111100010
1111111011101001
1111110100001100
1111101110111111
1111110110010011
100111010
100100
100011001
1111111010010101
11011100100
1010010110010
11101110110
1111111110101100
1111010111
10110101100
100111101
11001100101
101000101111
11100111110
11001110011
10000111010
10001110101
1111111110000011
1111111010100010
1111111101000001
101111
1111111111100101
1111111111100101
1111111100101011
10101
1111111101000111
1111111010100111
1000100111
1000100101
110000
1100110010
11000000001
1100010100011
1001100001000
1011100101
1111101101111001
1010111011
110111001
11011110101
10001000001
1111111101100011
10100111000
10011110001
1111111011001000
1111111110001010
1010010101
1111111111100100
1111111110100001
1111111111110010
100
1001101
1111111110101110
10000011
10101010100
10100110001
110001000
1010000100
101111010101
101110000101
1001101001011
111100100010
11010110001
1111101001000110
1111100011101101
1110110111
1000100000
101101011
11010010
1111111011100011
1111110101000000
1111111101011110
1111111100101110
1001011010
110110110
10110
1111111101000000
11010
101001
101101
1011010
11101001
11010100000
101101010101
11110010100
100100101011
111101001111
1000101000110
110110110000
10001101001
1110100
1111100011010110
1111101110110000
1111111001000100
1111100110001010
1111110111111001
1111101101100000
1111101010100101
1111110010110101
1111111011010110
1101100000
110010111
1111111010101111
1111110111111101
1111111111011100
1000
100000
101111
1011000
100100111
10100100011
101001111101
110101010111
1000001101101
111111011101
11110100111
111100100
1000101011
1001000101
1111110100110101
1111101100001011
1000001
1111110001011100
1111110110000101
1111111001111111
1001110100
1111110110010100
110000010
1011101001
11100110
1111110000000100
1111110011101001
1111111011111110
1111111111000111
10111
11011
111001
101001010
1111000001
100000111110
101010100011
10001010101
10110111010
1111110011011000
1111110010000110
1011100110
1111101110010011
1111110101111111
1111101000100110
1111011010110101
110011001
101010001
10001000
1100010010
10000010100
1111111010100110
1111111111100101
10011001
1111110111000101
1111111110010110
1111111110101101
1100
1111111111101001
1111111111100101
1
110111011
111100100
100001011101
10111100100
10000010100
1000001110
1111111001111001
1111111011100100
111011100
1011001010
1111011100010000
1111110101011111
1111101001100011
1111110101101010
101101110
1010101100
1100101111
1111111100111010
10000010101
110010100
101110111
1111111100011000
1111111101100001
1111111110100111
0
1111111111110110
110100
11111
1110011
111011011
11101000111
1000011001
1111111100011110
1111110101101010
101111100
1100110010
1111111001000110
1111101010101000
1111110101100110
1111111100011100
1111100111010011
111111011
1111111110011011
1001011011
110110110
110010
1111111010001010
11011001
1000110
1111111010001111
10100100
1111111111100001
1111111111101100
1111111111110011
0
1101110
1111111111010000
10000011
10101000
1111111010110010
10111010
1111111010000111
1111110111111111
1111101010100011
11000110
1111111010100000
1111111101111000
1111101000010001
1111101000110100
1111110100010111
1111100101010010
1001010001
1111111110100000
1111111001101010
1111110111110111
1011100001
1111111010111011
1111111011110010
1111111010111010
1111111110110011
1111111111111011
1111111111011111
1101
1111111111101011
1000011100
1111111111100010
1111101110110011
1111101101101000
1111110100001011
1111101111100000
1111011101100111
110111
1111111010101011
1111111101000111
111101
1111111000011100
1111111000011001
1111111101011010
1111100111111111
100111111
11111001
1111111011100101
1110111
10011001110
11011
1111111110001000
1111111101000111
1100
111
1111111111101000
11101
11100
10010111010
1010100001
11011010
1111110000010010
1111110100111010
10000011
1111110110010010
101101
1011001100
1111111100001110
1111111011110001
101001010
1111101101000010
1111111001010111
1111110100010100
1111111010011001
1111100111111010
11001010
1010110101
1001000100
10000101
1110011
1111111101110111
10011
10110
1111111111001110
1111111111110101
100111
1000101000
110110
1111111001011011
1111111001011001
1101101010
1111111110010011
110000011
1111110010011010
1111110000101111
11110110
1111110111101110
1111101010110110
1111111011110101
1101010000
1111101010010001
1111101100001010
1111101111111011
1111111010000001
11011101
1111111101000010
100000110
1111111111000111
1111111110101111
10101
1111111111100110
11011
101111
11000
1111111111010011
1111111010011100
1111111111010001
10001001
1111111
1111111000110011
11111010
1111111100100110
111011110
1100001110
1111111100000110
10001110
1111110111111101
1111111001110010
1001001
101001000
1001101110
100011010
110100111
1111111101101001
10101000
111100
1001
1111111111111000
10101
11100
101010
1111111111100000
10110
110110110
111001011
1000110
1111111011011100
1110001
1101011101
10000000000
1100000001
11000001001
10110110011
10011100100
1111010000
110001001
1001011010
1111100000
1111111100011110
1111111100010001
10101101
1110010
111101
1111111111101110
1111111111100010
1111111111011010
1111111110110101
1
1111111111101010
101000
1111111111110011
10110
1010
1111111111011101
1111111111100100
1111111111101111
1111111111011110
1111111101101110
1111111111111110
10011010
1111111101011010
1111111101010000
100000100
1111111111010100
1111111111110001
1011110100
1111111101010101
1111111110100001
100100
10001101
1111111111011101
1111111111011110
1000110
100111
10
