100010
1101
11100
1111111111011001
1000
1001
10
1111111110110010
111101
1111111111110011
1111111111011011
1111111111100110
111100
1111111111011101
1111111111110000
1100
11101
1111111111110000
100101
10111
110001
1011
10001
1110
1111111111100101
110000
111
1100
100000
1111111111111110
110
1111111111110011
100101
1111111111110010
11101
1111111111101101
101111
1111111111011010
1111111111111111
10110
1111111110111001
1111111111000011
1111111111101001
1111111111100000
1111001
1111111111111111
1111111110111000
1111111111111100
1111111111110101
10101
11110
1111111111111001
1111111111101101
1111111111011111
1111111111100010
1111111111111100
1111111111111100
1111111111110011
1111111111011010
1111111111101011
1101
1111111111101010
1
1111111
110010011
1000010001
1100011011
1010111000
111110010
110101110
110110001
11011001
1011110
1111111011101110
1111111111011011
101101010
101010001
1001000
1111111111000111
110100
1110010
10110
1111111111101011
1111111111001111
100010
1111111111110010
11110
10011
101010
1111111111101001
101010100
101000
111000
110010110
1111111110010101
110110101
1111111110001010
10000111
1111111110101110
110000010
1000010110
1111110001111111
1111110011110111
10100101
100000
111011101
1111001
0
1011
10011
11110
111100
1111111111110101
10011
1111111111110101
10011
10000010
1111111111101010
110101011
1111111101001101
1011100
111111011
1101100001
100100101
1111001000
11001100
1011100011
1111111100010010
1111110100101010
1111110110101000
1111110010010111
1111111111101111
110001011
1111111010101110
1111110000111001
1111101011110110
1111101011100100
1111111100101001
100010
11101
0
100
100000
1111111101110111
111001110
1111111001100010
1011100010
11100110
100110001
1111111100110100
1110001001
1111111101101011
10000111
1010100
10000101101
1000100
100001100
1000000101
1111111110000101
1111110101101001
1101111110
100101011
1111110011001110
1111100010010100
1111101000110111
1111111111000000
10101
1111111111110101
10
100101
1111111100110001
1111111011100011
11111001
1111110101010011
1111111101101100
1111111011100001
1111110001000011
100010
1111110011000111
1111111110100011
1111111110111011
1111111111111100
110001
1001011000
1010100010
1111110101111100
100011010
1111101110111010
1111101010010001
1001000111
1111100011111010
1111100001001010
1111101110000010
101101001
1111111101111001
1111111111011101
101010
1111111111001010
1111111110100000
1111110110001000
1111111000111100
1111101001000110
1111111100001110
1111111110111000
110010010
110000
1111101111001011
101101001
111011010
1111110001111010
1111101110100001
1111101110001110
1111111010011110
1111110001101101
1111011011001011
1111110101011101
1111011110000111
1111110000010001
1111110011111001
1111100001001111
1111111100000110
10101111
1111111101100011
1111111111001011
10000
10
1111111111101000
1111111000101110
1111110000011001
1111100101011010
1111110101000001
1111110011010110
1111110001101100
1111111010001011
1111110001101011
1111111100110010
1111111100001011
1111111111001101
1111101110001000
1111111001101101
1111110000101110
1111101111001010
1111101110111101
1011010
1111101011011010
1111100111010011
1111110110011101
1111110011101101
1111101100000101
1111110010101011
1111111010011000
100110
110010
1000011
1111111110100010
1111111000011101
1111101111001101
1111100110110001
1111111001101011
1111011001101001
1111110000011010
1110001
1111111100100100
1111111000010100
1111101111011111
1111011111001111
1001110
1111111011110001
1111110001011111
1111100101010001
1111100111001011
1111100110000101
1111111100101011
1101111
1111111111111111
1111100110110000
1111110001100001
1111101101011111
1111111011011100
1111111111110001
10001
110100
1111111110110000
1111110111101001
1111111000011001
101011111
10001101010
1111100110111010
1111110110111010
1111111000000010
100000111
10111010010
1111111101011010
1111100111110010
1111101010000000
1111111000010111
1111110001101011
101110001
1111111101001100
1111101110001101
1111111110111011
1111110001111001
1111111100111101
1111100101101000
1111101101001000
1111101000101011
1111111111010100
1111111111001111
111
1111111111011011
1111111011001101
1111111001011110
1111111101000100
1100110111
1111101010010110
1111100111001111
1111110010111011
100010010
1111110110011110
10001100
1111101000100010
1111011100000010
1111100001011001
1111010100000111
10100010
1111101111101110
1111111011010011
110100011
1111111100100100
1111110111011011
1010000001
100100
1111111000000010
1111110111101110
1111111001101111
0
1111111111111010
1111111111000001
1111111100011001
1111111100101100
1111110100010000
1111110110001111
1111010000010100
1111101010011001
1111110110011110
1111100101111100
1111110011100000
1011111000
11000101
1111110010001000
110011000
1111101011010001
1111110110100010
1111110110001000
110
1111101111
1111111111010101
1100100100
1111110110100001
1111101010110010
1111111101101110
10111001
1111111010011100
1111111111110101
100001
1111111110110101
1111111111010000
1111111110101101
1111110110011001
1111111010000100
1111101100010110
1111101010000001
1111110100111111
1111110011100010
100110100
1001011100
1111101101111100
11001011010
1111111101100111
10011000001
1111101110011010
1001001
1111110110111111
1111010011
1111111011111000
10011111101
1111110110011111
100010010
10111111010
1001100011
10010000
11011010
10000
1111111101111111
1111111110111111
101011
1000
1111110101111010
1000010111
10011011011
1111000001
1110100100
1111101111010110
1111111111110000
1111110111001011
1100011100
101110011
10111010111
111000010
1111101111100101
1001000000
1111111100011111
1111111110001110
1101
110100
10110001011
10001001111
1010011111
1101100001
1001001
1111111111000001
1111111100001100
1111111100011101
1001101011
1111111010001000
1111111111101111
111001011
1111101111011111
1111111001100000
1111111110110100
1110000110
1111011011
1111101101101001
10100000100
11001010100
10110101101
1000100100
111010100
10000011010
10011111
10010001100
1111111001101001
111001100
100011111
10101001010
100000011001
10111011101
1110010
110110
1111111101010111
1111111001100110
101000001
1010000111
1111110000010000
1111110100111001
10110001000
1111101010001101
11001111000
100100011110
10101110000
1111111110100011
111110111
100001001001
100111000100
10110100111
100001011011
10100010001
1011111011
101000011
11010001111
110101000
101010101
100000010110
100111111011
10001001010
11
1100
1111111111010101
1111111001000001
1111110111000011
110101001
1111101110000011
10010110010
1000101111
111010011
111110100
1111111001100100
1001011110
1111111011100111
11101111
10111111010
10111110100
110011110
11000111101
11000000
1111110011010000
1011011110
11101111100
10110111
1111111111111110
1111111100
11000010010
100101000
1111111111111001
100001
11110
1111101111101010
1111101101011111
1100000101
1100110101
1010010011
100010000001
10010011010
110100011
100000100
1111111110110101
1111110111000001
1111110000111010
10001011101
1101101110
101011001011
11100101101
11000111001
11111001011
1111111111101011
10111000100
11001011101
100111010011
100111101111
10101000110
10011101
1110100
10001
1111111111101001
1111111001000111
1111100011001100
10011
10000111
1111111100111101
10010110001
10001000
110100
11111101
1001100001
1111110000011010
1111110101111011
1111111001101000
11100111101
11101111100
100100001001
100111010001
101001000110
111010011
101101001
100101000011
110011101011
11010011111
1101100010
100111011
10101
1010011
1111111111000111
1111111101001111
1111111000001101
1100000101
1010111010
1111110110100001
1110100100
10101101
1111101111001110
1110011011
10111101101
1111100101101011
1111100000011111
1111100001101010
1111110101010101
1000000011
10011011010
11110011101
100100001011
1101000101
10101111000
10001111111
11111101001
101101001
1111110111011101
10100101
1111111111111001
1111111111110011
1111111111111100
10011
1111110101101000
100110010
1001000010
1111111101110010
11111011
10001
1111101110111101
1111110001
1111110010011101
1111101000110000
1111110101111001
1111111000001010
1111001100001111
1111011111101010
1111110001101011
1111100010001001
1111110101001110
1111110001111111
10010111111
1111111111010010
10100000110
1111111011010110
1111111101011001
10100010
100
111011
1111111111110001
1111111111000010
1111111100000000
1010000100
1111111100010000
1111110000011100
1011111011
1111111111100001
11101100
11010010001
10000111
1111111110000101
110011101
1111110001111100
1111001011110010
1110111000011101
1111001010100011
1111011011110011
1111101000110001
10001001
101000011
1111101010000010
1111110111100011
1111111111000010
1111111101000110
111011
1111111111110110
110001
1111111111100111
10011
1111111101000011
101101101
110111111
1111111101110000
1111111110011010
1111110111110101
1111111101001110
1101101010
1111001
101100
1111011001010100
1111011101101101
1111011101010010
1111001010100101
1110111100110010
1111011001110001
1111011011001010
1111100010101000
1111101111001100
1111100010001111
1111100100101111
1111111001000010
100111
1000
1111111111001010
1111
0
100101
1111111101110001
1111111101111111
1111111110000111
1111101111010110
1111100111010010
1111100111010100
1111100001011100
1111101001111001
1111100101110001
1111100101100010
1111011011000110
1111011111111011
1111100111111100
1111101110010110
1111100100111011
1111100000110000
1111010001001001
1111011010101111
1111110001010010
1111100011101110
1111100011011100
1111111001010001
100100100
100000
1101
1110
11000
11111
1111111111110000
1111111110111011
1111111110001011
1111111100011011
1111111110010000
1111111000101000
1111101101111110
1111111001100001
1111111010110110
1111111111001100
1111110101110100
1111111000110110
1111111100011100
1111111100100110
1111111000100011
1111101010011111
1111100010111011
1111101101001111
1111110010110100
1111110110010101
1111111000110000
1111111100111110
11100
1000
0
10
1111
1000
1111111111100010
1011
1111111010011101
1111111011001100
1111111111010101
1111111111101100
1111111001101010
1111111100101101
1111111110010111
1111111110100110
1111111101110010
1111111110011101
1111111111001100
1111111111000011
1111111110100100
1111111100111101
1111111110010101
1111111110000010
1111111101011010
1111111111010001
10
11100
111100
1111111111110111
1111111111100010
101110
110000
1111111111010000
101110
10110
101
10101
1111111111000110
1111111111100100
1111111111101111
1111111111111001
1111111111010101
1111111111111000
1111111111111010
1111111110111110
10
1010
1100
1111111111000010
1111111111011100
1111111111011000
1111111111010011
1111111111010010
1101100
1001
1111111111101010
100000
1111111111101101
