1111111111011000
111001
1101
1111111111100111
11110
1111111111110011
1111111111010011
1111111111001011
1111111110111011
1111111111110110
100100
100111
1111111111111001
1111111111111101
1111111111011010
1111111111110101
10111
1111111111011110
101100
11
100110
1111111111111011
1111111111111010
1111111111000100
100100
1111111111101000
11011
1111111111110110
1
1111111111110110
101001
1111
1111111111110110
100
1111111110001111
1111111100101111
1111111100010111
1111111110110101
1111111101111001
1111111101111001
1111111010010010
1111111100000100
1111111111001011
11100
1111111101101001
1111111100000011
1111111110000111
1111111100101010
1111111101001001
1111111110100110
1111111110100110
1111111111011101
11001
100111
1111111111010110
1111111111000111
10000
1111111111100010
1011
0
100101
11001
1111111100010001
1111110110010100
1111110011001001
1111110100001000
1111110000100111
1111101111101011
1111101010010110
1111100100111111
1111101000100101
1111101101100000
1111101101101001
1111101111110100
1111110011001110
1111101011001001
1111101111111011
1111110111001011
1111111001110011
1111111011001010
1111111110110001
110100
101
110100
10001
1011
1001100
1111111110110111
1111111110100111
1111111111011010
1111111001001111
1111111001100111
1111110101000101
1111100111100100
1111110001100010
1111101011000100
1111110001011110
1111101001001001
100001111
1111111111011000
10010111
1111110111100101
1111111000101011
1111110011101111
1111110011101101
1111110001100001
1111110000011010
1111101101011011
1111110111110111
1101100
1111111111001100
1111111111110110
1101
100010
1111111111001010
1111111111011000
1111111100010010
1111111111000100
10100000
100001110
1111111100011101
1111111101110001
1111110101101011
11001000011
100010101000
10000001110
1100010111
100110001
1111111011000101
1111110010001110
11000001
1111101100010000
1111011101110110
1111111010010001
10001010
0
110000101
1011100101
11110001
1111111111101001
10011
1111111111110101
1111111110100110
1100001
1111110110000101
1111110100101110
1111111000111010
1111111010011000
1111111100100100
101101000
111000011
101011001111
10000010110
101111101
1000011100
1111111101111001
101001010
1111110001110101
0
1111100010111111
1111100011110010
1111101010110110
1111111111000000
101011001
1111111011100101
1010110100
1111111111000011
1111111110110001
1111111111101000
11010
10101100
111000001
1111111100001101
10001100
1111111001100101
1111111100010101
11010110100
1111111101
1101000110
1111111011010100
10000101
111001001
10110001110
1111000010
1001001
11111010010
100001011011
100000101101
10100110001
11000010101
11010000001
10101001011
10000100111
1011110011
1100010
1111111101000100
1001
1111111111001011
11000010
1110010000
10101011
1111101011
1011000011
111000
11010100011
10010111000
100100101
1000000100
110010001
100111111101
1100001010
1111111101110000
10100001110
1111001010
10100101101
100100110010
11111101100
101001001111
101001000011
101101010110
1111001101
1100110010
11100011
1111111110001101
110111
1110
1011110
1000000110
1111111100110011
100001
1011010000
1101111110
101110100
1111111001101001
10010001100
10111110
1111101101111111
111011010
110111001
10110110111
101001001101
1011110010
110010001100
101001100010
11010001101
11101000001
100000111111
110011001001
100010110011
10110010100
1001010011
10011010
1111111111010010
1011
1010000
1000010111
100111101
111110101
11000110100
10111111011
100001100
10111110
1110111011
1111110011100011
1111110101111111
10000011110
11101000
100111
10000001000
100101101110
100110110011
11011000100
10100100011
11000100110
1101010101
11001100101
11001101101
1110101110
1010001011
101010
1111111111011010
100010
10000010
10010010010
1101011110
10101110
10010110011
11110100011
111100011
11111111001
1101101011
100110101010
1010101111
1111111011001000
1111111111010110
100011001
10000010010
1011011110
11000101001
10110010001
1001011000
11011100
110000010
101001001
11000100101
11010110100
101100011
1001111
101000
100010
1011100
1011111001
1111111110101101
1111110100111011
10000000000
1000000111
110011001
10111110101
11110100001
110000010101
10000111010
1
1111101111010010
10110000000
1111111001001011
11110001010
1111111111111001
1111111111101000
110001
1111110101000110
1111111001101110
1111101000110101
111011111
1100111010
111010100
11101
101011
110110
1111111111111101
1111111001000000
1111101111100011
1111110111100110
1001
1111111010100011
1111110000001010
10011000110
11010111001
1010010110
10010111110
11010111001
1111010111110001
1111101101100101
1111111000100100
1111111001101110
1111111100000110
1010111
1111110111011100
1111111000000001
1111110010110010
1111011101010111
1111110000011001
111010101
1110101010
1111111111100111
1111111111011110
1111111111111011
1111111111111001
1111110111010110
1111110010111101
100101100
1111111010001111
1101001111
10000010101
1101111
1000010011
10110100000
1101110100
1110000000
1111011011100111
1111111101001111
1111101101000110
11101101
10000101011
101100101
1111110111100100
1111101010000101
1111110101111111
1111010000000101
1111111000011000
1110010110
1010010001
101000
101000
0
1111111111101010
1111110111011100
111101000
1111110010
1111110111111010
1110101011
1111111100001001
11000011
11100100
10001001101
1111110100101101
1111110100010101
1111101100100011
1111111010011101
1111110111011100
11100011011
1111110011011000
11000011101
1111110011101101
1111100110011100
1111101101001011
1111011000110100
1000001010
1010001010
11000
1111111111110001
1111111111001000
100
1111111110011001
1111111110010100
10001000111
10011101010
1111110111110010
100111011
1111110110000111
111110010
1010001101
1110000010
1111101110111101
1111011000010110
1111100110010111
10011001000
1111111100010010
1000000101
1011011111
1101101
1111110000001100
1111110000101011
1111101110101100
1111111100001010
1011111101
1111110111001110
100001010
1111111111010111
1
11010
1111111111001001
100101000
10110100110
10010001111
1111110001100101
111001
100000100
1111111001010101
1111101111101100
1111110010100101
110100011
1111110011100100
1111001011110010
1111111110010101
1111111110000100
11110100010
1110111001
10010010
11010011011
1111111111000010
1011110101
100010010
1111111101011110
1111100110111011
1111111010100110
11111
11
11000
1111111111110000
101110010
11011011111
100010111101
1010000111
11001111111
1000100101
1101110110
1111111011000000
1111111000100100
1111111111001101
10001101111
1111101000110001
1111101111010100
1000011101
1111111010
1111111011001000
10001
1111111000100111
1111110111110110
1010000101
101110
1100100
1111101110101100
1111111111001000
10100
1000
111001
10001
100000100
1111010000
100001101011
100100110000
100001001
1111111111010011
1111111001000010
1111110100000111
1111111010110010
1111011001001000
1111101110010100
1111100001100000
1111110000010111
1111111001001110
1111110011111100
1111111011101010
10111011
1111010001
11100011
1010000011
1111110111011001
1110110111
1111111110001000
10011100
1111111110111110
1111111111000101
1111111111110000
1111111110010010
100010111
1111100111
100110100101
11100101010
1111111010100000
1111111010011111
1111100100000011
1111110010011110
1111001111010000
1111110001100101
1111110100111110
1111111010001110
1111111100001100
1111100001011110
1111101111101111
1111111011010010
1111111110111011
1111110111110010
10100011
1101010001
1111110111100010
1101011000
1001
1111111111011011
1111111110110011
111
1111111111111000
100111
111111001
111111100
10110001101
10111100110
1111111000110001
1111111011000101
1111100110101010
1111101000110101
1111011111011010
1111101000110110
1111110000110110
1111011000000110
1111110100011111
1111100011110010
1111101100110000
1111011110111111
1111110100011011
1111111111100110
11111000
1010011101
1111111001100100
1111111101101011
1111111111111011
1111111111010111
100100
1
11
10100100
1111111111111010
1111101110
10001111110
100000
1111101101000100
1111110100010101
1111111011000001
1111101101011111
1111111001010101
1111100100110101
1111011010101011
1111011111001101
1111101111111010
1111110110001111
1111101100010111
1111101011010001
100011111
101011
100010101
10111110
100101
1111111100000001
1111111110000100
1111111111100110
1000
1111111111101000
11011
11010000
1111111100110011
110001111
1111110011011101
1111111101010000
100010110
1111111001000111
100000010
1111100010101000
10000110111
1100010101
1111111001100111
1111111011010001
1111101110011101
1111110101111100
1111110101111100
1111111011001100
11111100
1111101011001010
100101010
10000011000
1110011101
110000000
1111111101101100
1111111111111101
1000
1111111111110110
1111111111100011
1111111111001001
11011000
111110010
1111111010101011
1111101100011000
110000111
1001001000
1111110010011001
1111111111110100
11100000100
1111111100111101
1010111110
10010011100
1011001000
1101111000
11110101001
10110000011
1111111100111101
1111101110101001
1110110
101000110
1111111111011011
101101000
0
1111111111000111
11100
1111111111101100
1111111111010011
1111111111111111
11010101
10110111
1111111100010101
1111110110111000
1111111111011110
1100010011
1111110111010101
1111110011010011
1010001101
10010101100
100110001100
11000111111
100001010011
100101001001
11100000111
1111100111
1011001100
1110000000
100001101
1011100
1100000
1111111111011101
1111111111000101
1000101
100011
111
1111111111001010
1111111111011011
1111000
10110001
1111010
11000011
100110110
1100001100
10111000000
11001111011
10001010101
1101001000
1101111110
11011010111
110101011010
100001111011
10110010001
11010011111
11011010100
1011110101
10000110
100011
10000010
11100
1111111111100100
1111111111000111
1111111111011011
1111111111110110
1111111111110111
11000
1111111111000110
10001
1111
11001
1010110
1101000
10101110
100010001
101001010
1100101110
10011100111
1101000101
111100001
101010000
1011111
100011001
110000111
11001000
111110
1111111111111101
1111111111110011
101
10
1111111111000001
11001
10101
1111111111111111
1111111110111100
1111111111110000
1010
1111111111110000
1111111111101010
1111111111100000
1111111111100000
1111111111101100
1111111111010000
1011000
1001111
1100111
11101
100111
1111111111100001
1111111111110010
11011
100
1111111111000100
1111111111011001
101010
1
1111111111000111
11001
1011
1111111111010111
