1000000
1111111111010001
1111111111111011
10011
1111111111101101
1111111111110010
1111111111100010
100110
11010
1111111111111101
1111111111101100
1111111111101000
101000
110
11101
110110
1111111111111110
1010001
1010
1111111111111011
1111111111110110
101011
1111111111001101
1111111111111010
10100
10011
1111111111110000
1111111111010110
0
1111111111010010
1111111111010010
1111111111011100
10100
1111111110111010
1111111111100010
1111111111110101
110
1111111111001001
1111111111100111
1111111111111101
11001
1111111111010110
11001010
100100011
1001010
1111111111101010
1111111111110100
1111111111110111
1111111111100101
1111111111100100
1111111111011000
0
1111111111011100
10110
101111
1111111111110010
1111111111101000
1111111111111110
1111111111100101
1
100
1000010
10100
1111111111110011
1111111111001000
11111
100010
1001011
10100001
111000001
1111111100001100
1111111011000011
1111111010001000
1111111011011000
1111111101111101
1111111011010101
1111111101000100
1111111101101111
1111111110010100
1111111111101010
101010
1110
1100
0
1111
11000
11100
1111111111111001
1111111111100001
1111111111001011
1111111111010111
1111111111101111
100001011
111110100
10000010110
110111010
10010001011
101100001
1111111100000100
1111101111100101
1111111001010010
1111110001110110
1111101100000110
1111101001011111
1111101000111001
1111110010101011
1111111000011011
1111111110100111
10011010
1110100
1011
1111111111101100
1111111111110000
1111111111101011
100100
1111111111111101
1010
10001
100111100
1010101010
10010100110
10101011000
11011001110
101000010011
1011001101
1111111011010100
1001111011
1011111101
1101111
1111110011100001
1010100000
1111100110010111
1111110011111101
1111110100001111
1111110111101011
1111110100010101
1111111101010111
101010011
101100010
1111111111110010
10100
0
11101
101001
1111111111100001
110000000
1010000110
10000101100
11010111
1111111001010000
1111111101001010
10001011101
111100111
1000111001110
100100111010
1111111111000000
10011100110
10111111010
11100000101
10111101110
11100000
1111111101001101
10101000
1111110100000000
10110010
1010011110
1111111111100101
1111111111010011
1111111111011100
101100
1011
1111111
1111111111010001
1111111011000100
111010011
1111111110010010
1010100000
10000100101
100011100000
101110000111
111001000110
110101000111
111000111110
1001100010010
111110100110
110111101011
111101100110
10101101111
11000100100
100000000011
11111111
1111100101111100
1111111000101011
1001100101
1000000100
111110
1111111111011110
1111111111000110
110111
1011101
10001110
1111110110000110
11000110
1111100110111100
110000100
1110000111
100011000000
11000111110
1000000100111
100101010000
1000111101001
1000101011101
1000111000101
10110110101
100100010010
1010100010
100010011011
11001000110
1101100011
1100100
1111110011111111
1111110110001100
1110011
11101
100011
10011
1111111110010010
1111111111010011
1111111101010111
1111110110011001
1111110001111100
1111101011100010
11110111100
100001111
1111111001101010
1111001100
10100101110
100011011000
1001111111001
101111100000
111110101111
1111101100
100001110001
10001001011
1111110110101111
110111110
1111100010
1110101110
101110010
1111110011100101
10010011
100001
1100
1001
1111111111001001
1100001
1111111101100010
1111111000110001
11000011
1010111111
1000000
11110100010
10100011000
1111111000100111
10111110001
1000111000
100000100100
110001111010
1111111011110000
1100111111
1111110011001101
1111111101101110
1111111000000001
1111101001101111
11101101
1111111010000010
1000000000
111100011
1000001111
11110101
1000111
1111111111100001
1111111111000001
1110110
1111110100011110
1111110111100011
1011110010
1111111101111100
1111111011001110
1111111010010111
111000001
1111111001010110
1111110100011111
1001001
1111010101001001
1110111100001101
1111101101001110
1111011101101000
1111100011101100
110011101
1111110010100111
1111111001110000
1111101001100000
10001110000
10000000111
1100101110
110001110
1100011
100011
100101
1111111111111100
1111110110111011
1111110110111101
10010011
1010010011
1111111101110100
1111110010000100
1111100000101101
1111101110001111
1111110110000011
1111011010110011
11110101
1111011000110100
1111011101010101
1111101010101110
1100110
10100100000
1111111101101010
10011111111
1101011111
1111000101
1101011111
100110100001
10000011111
100001111
1111111111110010
1011
111
1100000
1111110010110000
1101001010
10000010010
10100101110
1000100001
1111011101110110
1111110111011000
1111100101010001
1111001010110011
1111001001100110
1111010011110010
10110101010
1010111011
1011111
10101010
1010110000
1010010001
1111111010011011
10010111100
1000000001
1001001100
111101101
1111111111111100
11111110
110011
10100
1111111111100001
1111111111001101
1111111011101110
10000011101
1111111111000110
1111101000011100
1111111010010011
1111101101011101
1111101000001000
1111101110001000
1111010010110000
1111001110100110
1111111010010000
100001110000
100110
1111110011110100
1111100001010011
1111110111010100
1111110111110111
1111111100001001
1111110001101101
1111100101000011
1111100110001111
1111100101101011
1111101110001100
1111111011101001
1111111111101101
1111111111000101
1100
11011
1111111001110100
1111111111111001
1111101111010111
1111101101011111
1111100011010110
1111011011001110
1111011100011111
1111101010100010
1111001111010100
1111000110011101
11001101011
1010100110
11011
1111110110000011
1111101011000010
1111110111011101
1111101100101111
1111111101011011
1111110101010010
1111100000101101
1111101101101011
1111101011011111
1111110110101010
10010101
1101
1000100
1111111111100010
1111111011100000
1111101001110101
1111111101011101
1111111110010011
1111101001010011
1111110000111100
1111111111010011
1111010110000110
1111111000011110
1110111
1111011100100000
1010110001
1111110100100001
1111111110011111
1111101110101110
1111111111111010
1111111110111101
1111110000010100
1100001101
1111110000011010
1111101011100101
1111110000000100
1111101011000101
1111110101001101
1111111100110010
1000
1111111111111110
1111111111100101
1111111111010001
1111110101101001
110010000
1111111110010101
1111110101111011
1111111001010101
1111110111101000
1111110010110011
100100011
10100010
1111110100011111
1111111111001010
1111100010010101
1111001101000111
1111101110101000
1111100100000000
1111100001000001
1111010111010000
1111011111001010
1111011111011100
1111111100101110
1111110011001010
1111101110011010
1111110010001110
1111111100111011
1111111111101110
11001
1111111111111010
1111111111010110
1111111111011011
100000000
1111111011000011
1111100111001101
1111101001000111
1111111010100000
100111011
1011101111
1111111000001010
10110000001
1111110110000010
1111111010100000
1111110101100100
1111110100001101
1111111001100100
1111100101111001
1111111000001101
1111101010010000
1111010101110110
1111100111100110
1111110111111110
1111111101101011
101110100
1000011
1100
111100
1111111111100000
1111111101111000
1111111110101101
1111111001101011
11000001
1111110111101001
1111101110100001
1111110110110011
1000011001
10010101001
1111111111111111
1111011001111010
1111110001101100
1111110110100100
1111111100010001
1111110100001111
101011001
1111111000110011
1111110001011111
1111111001011111
1111101100110100
1111111000010001
1111111110101110
11000110
110111010
1111111111111100
1111111111101110
1000100
100001
1111111110111101
1111111010111101
10000001
1001010110
10011100010
1111110
1011100
1111111000100110
11000001
1111101100110000
1111111101000001
1111101110110110
1111110000101110
1111101101110100
1111100000010111
1111110101110001
1111110001101100
1110011101
10010000100
1001011111
10010010100
1011001000
1100101100
1010011111
111011
1101
1111111111111101
1001000
101
110100
10010100101
10111100000
101101110000
11110000100
100011101101
100000010
1111111010101010
111011010
1111101100011010
10111110
1111101100100100
1111111110001011
1111111000000110
1111111000110010
1111111110000111
101000110011
10001010101
10101011001
11111000101
10100101111
10010101110
111110111
1111111111111011
1111111111110010
1111111111101101
1111111111110010
10001001
11100010
10000001100
11010010101
100110110001
101110000101
11001010011
11111111000
11101111110
1111111111101101
1111101011110011
1111111011010001
1001010110
10010010000
1000100101
1111110110100010
110101
11100111000
101010101010
100111011011
100100110011
11001000000
1110111111
110111
1111111110000100
101
0
1111111110111001
111111
10010111
111111111
11001101010
11111110110
10101110001
100001010011
11110010011
10011100010
111010000
10010100001
1111111000100001
11111111110
11110010
10101101100
11011111011
10000011011
11010001
10010010011
1100010100
11111010101
100100101100
1011110110
1111111101110011
1111111101101000
1111111111101011
1011
110
0
1011001
100000100
10010101110
100000
111001100
101000000
1111111100011001
10000100010
11011100111
100101010111
10111111100
11000011101
100100110010
101100111000
101000001001
10000011110
11011000101
100
100001
100000101010
11101101110
1101001100
1111111110011000
1111111110011100
100110
1111111111111011
1111111111111101
101001
1111111111110010
110110101
101110010
1111110011011111
11001101
10111110100
1000010011
1011010111
10100110110
10100110011
11001110
1111001110
111110110
1111110011011001
1111110101101010
11010111110
10100000111
10010101011
1001
1111111110111001
1100100110
1001100010
1111111111100011
1111111111110010
111101
100010
1111111111100011
1111111111101100
1111111111101111
110010100
1000000001
1000100111
10001110011
101001010110
100010110100
1111111110010100
11111101100
10111100100
10011000010
100101011010
10111111101
100010001100
101010001101
101001011111
11100111100
10111010110
10010001001
10011110
101011
1111111111000100
1111111111010101
1111111111011110
1001011
101001
1111111111111110
10011
1111111111011001
11110011
11011000
1101101010
10001111001
10010000111
11110110100
101000010101
100101001110
100101010111
110001100011
111010111110
10101111100
11111011010
11100111010
100101001000
10001000111
1111011111
1100110100
11001010
1111111111100110
1111111111111001
1111111111000110
1111111111110011
111
1111111111010111
1111111111001001
1000011
1111111111101010
1111111111110100
10110
1111111111110011
10000
11011
1111111111100100
11111110
10011111
11000001
10001111
1000100110
10010110
10000011
10011010
1001000010
100000111
100000
1000100
10001
0
101000
1001111
10111
1111111111100010
