10011
1111111111000101
1111111111110111
1111111111111101
1111111111110111
1111111110101010
1111111111110010
11110
100
1111111111110101
1111111111111010
1111111111101111
10
1111111111100101
11
1111111111010001
1111111111110100
100010
111
111
10110
1110
110011
1111111111010100
1111111111100111
1111111111100111
1111111111000011
1111111111001110
1111111111000001
1111111111100001
1111111111010000
1111111110111111
1111111111101000
101010
1111111111000101
11011
1111111110110001
10001
1111111110010000
1111111110100111
1111111110110010
1111111111010010
1111111110111100
1111111110000010
1111111101111000
1111111111100000
1111111110110100
1111111111010101
11
1111111111111000
1111
10010
100101
1111111111100100
111001
1111111111001011
1111111111011011
1111111111011000
101101
1111111111101100
1111111111110101
1111111111110110
1111111111011011
1111111100110001
1111111110000011
1111111101001001
1111111011001010
1111111101010100
1111111111001100
1001111
111
1111111000010100
1111110100010011
1111110101101000
1111110101010100
1111111011000011
1111111011010100
1111111100101001
1111111110111101
1111111111111111
0
1111111111101101
1111111111010011
1111111111001011
1111111110101010
101111
1111111111111011
1111111111011010
1111111111011111
1111111110111001
1111111110001100
1111111010000100
1111110110001011
1111110100001111
1111110010010001
1111101001111100
1111101000111110
1111101100000010
1111101001010100
1111011000101010
1111100110001111
1111101010100010
1111101001010000
1111101011000000
1111110100111011
1111111100110110
111010
1111111111110001
1111111111111000
1111111111011000
1111111111101000
1111111111100010
1111111111111111
1111111111100010
111000
1111111111110001
1111111110111101
1111111101101000
1000010
1111111100000100
1111110111100011
1111110111011101
1111110110110101
1111100101011010
1111101111011001
1111111001011010
1111011101001001
1111010011110011
1111101000001110
1111111001011101
1111111101010100
1111111010100010
11001
100100011
1001010000
110000111
100000001
1111111010011010
1111111101010011
1111111111001111
1111111111100101
1111111111100110
1111
1111111111110111
1111111101100101
1111111111111000
1000100101
100000001
111010
1111111111100111
1111111100001100
1111101001100011
1111110110010111
1111110001110101
1111100011001110
1111110110001100
1111110000101111
1111101010011110
1111110100111101
1111111010110001
1111111001111010
1111101000100000
1111110101101100
1010011000
10011010
1111111101111100
1111111111111000
1111111111010111
1111111111111111
1111111111110010
110
1111111110000111
1111111001101101
111011100
1101100111
1100000001
10110100
1111110110010010
1111111100100000
1111111001111010
1111111001100001
1111111101011001
111110110
1111110110111101
1111111100001111
1011101
110011
1111110010111100
1000010011
1110110
1111110110011110
10100010
1111110101000010
1111110110000111
1111111110011111
1111111111111001
1111111111011011
1111111111110110
11110001
10100111
10000111
1000011
1101000011
1111101100
1111100111101100
1111110111101011
1111110011110110
1111111000010010
100010
1000011
1101111
110001
1111110010111110
111001011
1111101010111101
1111110101000010
1010110111
1111111000001011
1111111001110110
11001111
1111101110000101
1111110111101001
10001010
1111111111011011
100
1001110
10010010
100011110
1010111
1101110111
10010101010
1001
1001111000
1100100011
11001
11000000110
1111110101010011
11100001
1011001001
1111111011011101
1111100110010001
1111101001110001
1010010110
1111111011110001
1111111100001111
1111101111110000
1111100011010010
1111100101110111
1111110001010011
1111111000001010
1001101
1111111110110000
10010
111110
1110
1100011000
1001011
1011001100
1110101
1111111011010110
110011
1110101110
1101100011
1111110011011000
1010010111
11000111
1111101100011110
1111111100010111
1111110101101010
1111111001000001
10001101
10000111011
1111110111100011
1111111110110111
1111111001110000
1111100100000110
1111100100011001
1111101101011001
1111111011011111
101001
1111111111100110
1011111
101001
1010000101
1111111100000100
110110011
1111111011001100
1101110001
1111101110111010
1100001100
1111110110001101
100110000
10001100010
1111111110110010
1111011001001100
1111100111100110
1111111101010101
10000100100
1111111111111011
1011000111
1111111110011000
1111111001010011
1111110010000010
1111010111101000
1111010010110100
1111111101000010
1111110010011111
1111111111010001
11110
101110
100100111
1111111101011010
1111110011010011
1111101000101111
110011100
10001111011
1111110100010111
101010011
10100010011
1000111001
1101000111
1111110011111100
1111011010001111
110000100
111000110
11000101100
1001001001
1101111
100001111101
1111000100
1111110011010001
1111100000110100
1111011011101100
1111110110000010
1111110101010101
1110
1111
100001
11001011
1111110001010001
1111111010110001
1111110101010011
1110010
100000101
10000000000
101110010
11010111101
101011011
101010101
1111100111101011
1111001000011101
1111111111011000
10010110000
10100001011
10110110100
1010111111
1101110011
10110011011
1000100000
1111101010000110
1111100101110011
1111101110010011
1111111100001101
1111111111011001
1111111111100101
0
10001000
1111110000011101
11010100101
11000001111
101110101
110011100
10111100
11001101
111101100
1111111011010100
1111111100011010
1111001110010101
1111110111001010
11101011
100100101000
10010110111
111001011
10000111000
111010001
1111100110
1111111100010010
1111011001000100
1111010101000100
1111100111010000
1111111011001011
1111111100110100
110101
0
10111
1111111010010000
100001011010
11011110110
10000111011
10011010001
101010111
10101110
1011001000
100000101
1111101101110011
1111010110100111
11011011
100010101
100011100011
110001111
1110111110
100001111011
10010000010
1100000101
10110111000
1111100101111101
1111011110101110
1111110010000100
1111111010110011
1011
10
1111111111101100
1111111111000110
101010
111111011
10100010
111010000
10001010110
1000000
1111111010000010
11000000000
1111111111101011
1111100000111101
1111001111110010
1111110110110101
100001101111
10101011011
10110110111
1000111
1111101100
11100010011
1010111010
100110100101
1111101011100100
1111001011011100
1111101000011000
1111111000011000
1111111111010011
1111111110110100
10000
1111111101101100
1111111000111000
1111111001000001
1111111001000001
1010011101
11000101000
11101001011
1111110101000111
1011101010
10111011
1111011101000010
1111100111101010
1111111111011100
101110010100
1011101100
1010101101
10110010000
1110110111
11110000110
1111110010101011
1111111111001111
1111100000100110
1111010011001000
1111011110111011
1111101101000001
1111
11
1001
1111111111001000
1111110011100011
1111110100000010
1111111011111011
1000000011
1111111100101111
1100111110
101010000
11110101
1111101101011101
1111101101100100
1111110010101101
101000010
101110101010
1011100000
110100010
100010011110
1111101111000100
1111111000010110
1000100110
1111101110111100
1111110000011111
1111101010001010
1111101000101001
1111110001011111
1111111111000000
111101
1111111111111110
1111111111111101
1111110000110001
1111101111111001
110011110
1111110111011011
1111110010000010
1000111001
10111000
1111111111101100
110101101
1111110101000000
1111111010010010
1100101101
1101100000
101001100110
11011111011
1101110010
1100010001
11001101100
11010101001
1111100110011000
1111101000011010
1111101101011110
1111110011010101
1111111110111010
10000
11100
1111111111101101
101010
1111111010110111
1111111001001011
1111110110001000
1111111001110011
111000
1111111101010100
1111101101001101
1111100000100010
1111111100010110
1111110001000001
1111111011001100
11111011010
1010100001
100011000110
1111100111101000
1111101011101111
10001101001
1111110010110111
1111111000100110
1111001101011111
1111100011011101
1111101101111011
1111110101111011
1111111011111110
1101
1111111111111101
1111111111010101
1111111110101111
1111111010100100
1111110110111101
1111111110001111
1111110100110000
1111011100011111
1111010000101111
1111011000111101
1111010011000001
1111110011011110
1111101011011011
1111110111101000
1111111101100010
1111100000000101
101010
1111111010001010
1111110011111100
1111110001100001
1111010010111011
1111011010001110
1111001111001100
1111110000011000
10101110
10000110
1111111111010100
1111111111111010
100101
11110
1111111011100010
1111110110111101
1111110011101010
1111110111011010
1111100110110011
1111001110000011
1111011001101111
1111101010000010
1111011101001000
1111110011001000
1111110001010100
1111101101111000
1111110010100010
1111100100011001
100101001
1111110000100101
1111100100110111
1111111110110010
11010000
1111110001111100
1111101011100000
1111110101101010
11100111
10011011
1111111111010100
1111111111110110
1111111111101100
1111
1111111100001100
1111111011000010
1111110011101001
1111101010101010
1111100001010111
1111011010001011
1111110100110111
1111110011001011
1111111110101010
1111111011000011
1111111011101110
1111101010100010
1111110011101011
1111110101110101
1111111001100011
1111111101011010
1111110110000110
1111110011001010
111000001
1111101001111101
1111110011111100
1111110110001010
1111111101110100
10010
10011
10
1111111111010110
1111111111100001
1111111100010011
1111111010001001
1111101100011100
1111011111001010
1111100001010101
1111110100010101
1111111000001001
1111110111111101
100100101
1111110110111111
1111101011111110
1111110010011111
1111111110000100
1111110111110010
1111101000001001
101011
1111110000000001
1111110010000111
1111111000000100
1010100
1111111110011110
1111110010100001
1111111001001101
1111111101101000
11
0
1111111111111110
1111111111101000
10011
1111111101011110
1111110101101001
1111110100011000
1111111101011010
1111111110101100
1000101110
1000101000
1111111100011111
111010001
1111100110011111
1111110000101001
1111100110110111
1111101010000010
1111110101010110
11011100
1111111010010110
1111110111101100
110010110
1011110100
1100
1111111110001100
1111110010001001
1111111011010010
1111111111010111
1111111111100110
1111111110111100
1111111111111101
1111111111100110
1111111110001101
1111110110001101
1111111011101001
110101010
110010001
101101000
10010001
1111111010110100
1111111011110001
10000101111
1111111000101010
1100110101
1111111001111010
1111110100000100
1111110110010011
1011111100
1111110001010000
1010100011
11011110
1111110101101001
1111111000010010
1111110110111010
1111111111110000
1110
1111111111111010
10111
11110
100101
1111111111101111
100111
101110000
1010110111
10010001010
10100110111
10111101110
1011111110
1111111111010100
100101101
1111111111011110
110111001
1111111110110101
1111111110101010
100010
1111111111100000
1111110100100111
11100
111011101
1101110
1110010
1111111111111100
11
1001
1111111111101101
101
110101
1111111111010001
100110
101
1111111111101100
1101
10101
1011
10011
10100000
10111000
11111000
11110100
100101101
100110100
100000000
100000101
110101000
11100011
10011001
10101000
100111000
100001
1111111111101010
1111111111101010
1101
1111111111111010
