1001
1001100
1111111110110000
10011
1111111111000111
1111111111111010
1011
101
1111111111101011
1111111111011100
1100
1111111111110101
11
1111111111000011
1111111111100101
1000
1111111111100010
100100
11010
11010
1111111111110001
0
1111111111101101
1111111111110010
10010
1111111111010011
1111111110111101
100111
10101
1111111110111111
10110
1100
1010
10111
1111111111110111
1001001
11010
1111111111010000
100110
101000
10111
10110
1111111110111001
1111111100101011
1111111111110101
1111111111111000
101001
1111111111001010
1111111111110111
10110
100011
11111
1111111111011001
1111111111111110
101011
1111111110111010
1
1111111111010011
11000
111110
1111111111011100
10
1100
10100
1010001
11100110
11110010
10011010
110100
1111111000101101
10000101
1111111110000110
10000111
1111111110111000
1111110111010010
1111111110100011
1000101
110100
101
1000100
1111111111111100
111111
1111111111111111
10101
101
101
101101
10111
1111111111110001
1111111111101011
1111111111110000
1111111111010010
1110010
1000010000
1001111000
10001111101
10010
1111111011011010
1111111011001011
1111110111101010
10111101
111101101
1111110101000101
1111111111101000
1111111110010101
10100
1111111011111010
1111111101100101
11011110
100111
1001001
11010
1110
11
11
0
111110
10111111
11001000
10111110
1000111
1111111110101001
1111111011011011
111100
1111111011001001
100111011
1111101110111100
1111110110010001
1111110100101100
101110111
1111101100100011
1111101111100011
1111111001101100
110011001
1111111110011101
10011000
1111111110011101
1111111101100000
1111111100011110
1111111111110000
100101
1111111111100100
110011
1111111111001011
11011101
1111111111111101
1111010
1111111111100111
1001110011
1111111011000101
1000100010
1111110101101010
1111101110010001
1111100101101000
1111111010010000
1111101101011011
1111101010101100
1111110011011010
1111111001011000
1111110001101000
1111110001000000
1111101010011101
1111101110000011
1000001000
110000011
1111111110001101
1111111110110100
1111111101111111
101011
1111111111100011
11000
1111111110000101
1111111111011100
1111111001110110
1111111110100001
1111111111010110
11100
10010111101
10000011111
1111111010010001
1111111010011100
1111111100100001
1111111001010010
101100010
10110111
1111110110001111
100010
1111111100100100
110000
10110010000
1111111100100011
1111111011001011
1111101111001110
1111111000101111
1111111000110010
1111111110100101
1111111111100010
1000111
11001000
101111011
11110110
1111110010110110
1111110110010111
1111110011111100
1111101000010101
1111111100111000
1111111110111010
10010101100
1111110101111001
1111111100011110
110110000
10111011
1111111110100110
1111111011100110
11011110110
1111111110111011
101001010
1111111111000011
1111101011011010
1111110000000000
1111100110001110
1111101001011111
1111110110001011
1011001
11101
10101011
11101100
10010001
11001
1111101101001000
1111100101100111
1111111011001011
1111110100001110
1111100111010011
1111111010110111
1111110010110010
1111111101111011
1111110110000010
1110110100
101000011
1100011
1010110101
1111111111010010
1111110111010110
100101111
1111110101010000
1111111000000011
1111101110100111
1111010100010111
1111011010001001
1111110100110101
1111111110000001
1
1010101
1111111111111010
1111111110011111
1001011011
1111111101001110
10111011
1111111001100001
1111101001000110
110101101
1111111101001000
1111101110100001
1010111000
1111010101
1101111001
1111111000001000
1010001111
1111111011101101
10101010
11101010
101011011
1111111011110100
1111100111000111
1111110100101110
1111100000001101
1111010101001011
1111110010110001
10101001
101110
1111010
11010010
1111111101101010
10000010110
1001111101
1010101010
1100010001
1111101010101010
1111111001110111
1111101110111011
111101110
1111101110101001
1111110110111011
1111101010011110
1111110001110101
1111101110111001
1111110001000111
1111110110100111
1111111000001000
1111101111001100
1111110000101101
1111101110011001
1111110101111001
1111100111111001
1111100001111110
1111110111010100
1111111111101101
0
10010
111000011
1101101011
10011010101
10001000000
10110111010
1101001011
10001010110
10100000011
11110000101
1010110111
1111111001101111
1111110101010100
1111011111111011
1111100111101011
1111100000001110
1111101100010000
1111100111101011
1111110101000010
1111110010111101
1111110010101000
10000101000
1101001100
1111110100111111
1111100111010101
1111111010100011
1111111111000001
1111111111110100
1
111100101
10011110110
11001010111
11011101110
10001010011
10001110001
101000011101
1100100000
1111101010010100
1111110010111111
1111111010101010
1111111010101110
1111100010100101
1111101011100011
1111111100011111
1111110001011111
100010011
1111111111011000
1010001100
10101001111
100011101100
100011011100
100111010000
110111110
1111111111101010
1111111111011101
1101
0
1011001000
1001010001
11001111111
101010100100
10111000011
1111111111010011
1111101110000001
1111111101111100
1110111110
1111111000111010
1111100000100100
1111011100101110
1111101101011110
1111011000110101
10000101
10011011100
10001000010
10010001001
100111001001
101100110100
11111010100
11110111001
11101101111
1010001011
110101
1111111110110110
1101
1111111111100110
10000001
10110
10011101001
110100111111
111000100110
11100010110
110011001
1010000010
100010001011
111000010
10110100011
1111101100111100
1111110000111110
1101010
11000
1101100111
100011001010
100100110110
101001000110
100010001010
10011110110
10011111101
1101010001
101100001
11010111
10000
1111111111000111
1111111111010110
1111111110010110
1111111100111110
11010010
101100110011
1000000000101
1000001000011
100001011000
11000100000
11101100000
11011001000
1111110101110110
1111100101110011
1111111011001010
11011001010
11010111011
110110110110
10001100001
111000110
1111101011
1010111110
1010101001
110110101
10111000
11100001
100100101
110001
1111111111011110
1111111111111001
1111111101011001
1111111000000101
1111110111111001
1000110001
1111100011
110011111010
11111010011
1000000100000
111000011100
11111101110
11100
1000001001
1100101010
1010100010
10000011111
1000000000
1111111110111001
1100001011
10100010101
101101101
1111111010101010
1111110110000101
1111111001011110
110000000
10101100
110
1111111111110010
1111111111111001
1111111110100100
1111110101010110
1111101100101000
1111110011101111
1111101000101101
100001101
101110110
10010110001
101001100101
100100001010
101011011110
100101111111
10111010111
1111100010
10001001
1111110010000001
1111111101001100
1111111101011011
111010001
1111110111011100
1111111111100011
1111110111000010
1111110101011100
1010111101
100011100
11010
1111111111100010
1111111111001110
1111111110010110
1111110011110110
1111101101101011
1111110100010101
1111101101011101
1111101010010001
1111100111101001
1111100111101110
1111101101111111
1000100001
100011110111
11011011100
1111111011010011
1111110101101001
1100101
1111110110101101
1111011010
1111110110101100
1111101100101111
11001001
10011101
1111111100000001
1111110111000100
1001000001
11010010
1111111111111001
100111
1111111111011100
1111111110100110
10001010
1111111011110111
11011100
1111111110001001
1111111000001001
1111101101010110
1111110100010001
1111101111110001
101011100
1000111011
11110
10011100000
1111111010010111
11001010
1111111101001111
1001000111
1111110100100010
1111111010000110
1111111000110100
1111111010011001
1111110111001011
1111110111101001
110100010
10010010
11110
100
100
1111111101100111
11101110
1111111101100000
1111111101011011
1111101110010001
1000011
1111110011101000
1111111111011111
10100101
1111111100001011
1011100101
101000001
11110011
101010
100100111
1111110110110011
1111111100111010
111101
1111111000100111
1111110101111001
1111111001010000
1111110111101001
11010010
100000100
1
1111111111001010
1111111111111011
1000
1111111111100111
1111111110010010
1111110111111111
1111110100011000
1111110011001111
1111111001011011
1111111001000011
1111101100101000
1100101
1111111001110010
10001100011
1111111101110011
1111101110001001
1111100101001001
1001000100
1111110001010011
1111110101101111
1111111000011101
1111110101001000
1111110001011000
1101001
1101000110
1000101001
11011111
1101011
1111111111010011
1111111110111110
1111111111011101
10000101
10000000
1111111000010010
1111111011111000
1111111000110110
1100010
1001101010
1111111001110001
1111110011100011
111110101
10001101110
1010100011
10000000011
11110010
1111110000100110
1111100111111011
1111100111000001
1111110100000011
1100100110
1110110100
1011101111
1110100011
1100000000
101010000
110100
10100
1111111111110110
11010
1111111110011100
1111111011001001
1111111001101110
1111111011011110
1010100011
1101000100
1111111110111001
100011000
11100111
100000111
1111110111010100
1111111111000110
1110101111
1111101101111110
1111110001010001
1111110101111000
1111111001111111
10000100011
10111110001
11100000010
11001011010
1101000111
1001100011
101100000
1111111111101111
1111111111111101
1111111111111100
1010
1111111111011110
1111111011010100
1111111100001100
1110010111
10110111001
1011010
1111111011010101
1111101011100011
1111111110001110
1
1111110010011000
1111111001000010
10101101011
1100010101
1111110000111101
1000111101
1111110100
10001110111
10010010000
11010100111
10011000110
110011001
100110011
11101111
1111111111011011
11101
1111111111011010
1111111111111111
11101
1111111111110011
101101111
10010001110
10000100100
1111
1111110000111010
1111101111100111
1111111100101100
1011111100
100000110
1111111111110000
101000
1100111011
10000111
111110000
1111111111110110
1111110111110101
10011111
110100111
101110010
10011100
100000
1111111111111110
1111111111011110
1111111111100010
1111111111111001
10100
11
1111111111110000
1111111111001111
1000111000
1001001010
101100111
1110100000
110100101
1111111010010101
10110000
1111000111
1111010101
1111111110100111
1111110011110011
1111110110101010
1111111100000111
1111111010100010
101000001
111100
1111111111010101
1111111111101110
110000
1111111111101100
100001
10010
1111111111111110
111010
10
11000
1111111111101001
1111111111111101
1111111111110100
1111111110001000
1111111111101110
100001
110000
101011011
1111111111110100
1111111111011100
1111111110111111
1111111111101010
1010111
11011000
11101101
1111111111011110
111011
1010111
1100
11110
1111111111010101
1111111111011111
1
1111111111101001
11111
