1111111111100110
1111111111111011
1111111111010111
100001
1111111111110110
1111111111100111
1100
11010
1111111111101111
0
1111111111100011
1111111111110111
1111111111100000
1111111110110111
1111111111101101
110011
10101
10111
100101
1111111111110111
1111111111100111
111
1111111111110110
111000
1111111111110110
1111111111000000
101000
1111111111101011
1111111111110000
1111111111011111
1000010
101
1111111111100001
100111
1010
100100
1111111111101101
1111111111110001
1111111111111111
1111111111000110
1111111011101110
1111111110000010
1111111011100001
1111111000100010
1111111111000011
1111111110001001
1111111110101111
1111111110011011
1111111100110110
1111111110110110
10010
1111111111110110
1111111111101110
10110
1111111111111110
1111111111111101
1110
11110
111000
10000
1111111111110011
1111111111100001
110011
1111111111111110
1111111110100011
1111111110110111
1111111100110110
1111111110011001
1111111011110101
1111110101000010
1111111000010011
1111110101111011
1111111011001110
1111111010100111
1111110110001111
1111101111101010
1111110001001100
1111110110001111
1111111010010110
1111111110110001
1111111111110001
111001
1111111111110101
1111111111011110
10000
1111111110111111
1000011
11
1111111111010111
101001110
101000111
110111000
1000110100
1010000101
10000010000
1011010100
11011010110
1011110010
1111100011
1111011010
10100010100
111001010
1111101111110101
1111111000000111
1111111001111000
1111101011110101
1111101001001110
1111110010101001
1111111101111001
10001110
1111111111100100
10
1111111111010101
100
1111111111111100
11000
10110
1110101100
10000010011
1111110011
1101110001
1001011100
10001001011
1110110111
10000011001
10101101110
101110110
11010000110
10010101100
1011110110
11001101111
1101000110
1100010000
1111111100111010
1111110111110001
1111111011001100
1010111101
101110011
1111111111101110
10011
1111111111111111
1111111111111001
110011
1010111
110100010
10100000111
1011100010
10111001101
11010101001
10011011110
10100101100
100000101
10000100100
1111111001101101
11111010
1110010
11000011101
10111110
10110010
1001
10001101001
101100
1111111111001000
1111111110011001
1111011
1011001
1111111111101000
1111111111011000
1011100
1111111111110010
11111
110010110
1111001001
10010110101
10110000010
10011111011
111000111
101111000
11000101111
11010100000
1111111011000100
1001100000
1111111100000111
10110110
1111111110110010
1100
1010010101
1111110011000101
1001000000
1111110110000010
1111111010111110
1111111101100000
101100001
110101
100110011
1000
11000
1011110
1011001
1100110110
1111010111
1111001011
10110011100
10100010111
1100000000
110100111
1000111110
11101011111
10100111001
1111111110001011
1110000111
1111101100101100
110011111
1111111010010000
1000100
1111111101101111
1111111010010001
1111110100110000
1111111110010001
1111111100010010
1111110100010000
1111111010001010
11001110
111111
10001
1111111111101101
1111111111100000
1011111001
10000010000
10010111
1111110101001111
1111111100010101
1111110100100001
1111101011101110
110000011
1111111111100000
1011010000
101001101
11001100
1001011100
1111110001010111
1111101110010011
1111110010110010
1111110000101110
110
1111111100010010
100010101
101101001
1111111001010000
10001011
100000001
10011
11111
101001
100001110
1010100100
101101101
1111110110100100
1111011101111101
1111101110110000
1111111010111001
1111100110010100
1111001111110001
1111001010000000
1111100101100110
1111011000110010
1111110010110010
100011010
1111101011
10000101111
1111111110000001
1111101010000111
1111111001001111
1111101100101001
110011000
10001111101
1111111111110100
1011001111
11111111
1101
1111111111110010
1111111111111100
10001101
111111100
1111110110000011
1111011010100000
1111000010011000
1110110101111000
1110110110100010
1110101111011000
1110101100111110
1111001010101000
1111001101101011
1111100000101010
1111100000010001
1111100110001011
1101001001
1111111111010010
11011110
1111111011111001
101010101
1111110001100000
101101100
10001000100
1110011110
11001010000
100010001
100
1111111111100000
100001
1001011
10101001
1111110010001000
1111001111111111
1111000000111001
1111000000001010
1111000111000010
1111000101101111
1111011011100011
1111100001101101
11110010
1000100101
111111011
1111110001010111
1111111101110101
1100010010
1000111011
110011011
1111111101100101
1111101011011101
1111110111111011
1011001101
10101100101
1111111001
11111
101
1100
1111111111111001
1111100
1111111101111111
1111101100011011
1111011010000100
1111010100101110
1111101010101001
1111111000011011
1111110100101011
10001100101
1010111111
101111111110
100110100000
11110111011
1111111110011001
1010100100
10111100
1011111000
111011
1000101101
1111100011101010
1111010011011001
1111010111110111
1111110010111010
1111111101100001
100110
11011
111010
1111111101110111
100101011
101110
1111110101001010
1111110101011001
1111101110000110
1111111011000001
1110000001
10100111001
110011111001
1111011100
1111111000100011
10000100000
1111111101111000
1111111101001111
1111111011001111
1111110111101100
1111111000000111
1111101111000111
1111111011011010
1111101111101100
1111011110111110
1111011000000001
1111100101010011
1000001
1010010
1111111111100011
111
1111111111100011
100101
10000110
1101010100
1001011001
10011110100
1111001010
1110011000
10010101001
1111111011011101
101101010
11001101
1111110101001101
1101110000
1111111011110101
1111110111001011
1000100
1111111111110110
1111111011110000
1111110011101000
1110100010
1111100110011010
1111101111010000
1111110011100001
101111
11011110
100011
1010
10101
1000010
1011000100
100000011110
10011110000
100101010000
1111110011011011
1111001011111001
1111100011111000
1111011111011010
1111111000100111
1101
1000001101
1100001
1111110110010011
10111001
1111110011100110
1111101111010001
1010100111
1111111111101010
111001001
1111101010001011
1111110111010010
1000010
1111111011110010
110110110
101110
1111111111100101
1111111111100101
100001010
10101011101
100011001010
1110000110
1111111000011010
1111100011011000
1110111110001111
1111010011101110
1111001111001000
1111000111101010
1111110101111011
1111101110011100
1111101111000110
1111110010101001
1111110101011001
1111111000110100
10000011000
1011010000
10100001000
1001001011
1111110101001000
1111111000010011
1001000000
1111111110101000
11011000
1111
101
1111111111100100
101001110
10110001010
11101010000
1110011101
1010000
1111001100
110000000
1111111001000110
1111100000010011
1111100000100001
1111100100001110
1111110010011111
1111110111010111
1000000
1111110010101011
1111111100110000
1111111111100000
110110110
1111101110100111
1010000000
1111101111011110
1111110100010001
1111111110100001
1001100000
111010110
1111111111000000
11
10010
101010111
10011010001
10100101111
1101000101
10101000011
111011001
10101001100
11111001110
100001010110
1111000111
1111111000110010
1010010010
110110110
1011001111
111111100
1111101110001000
1111101101111011
1111111000111100
101001111
10110010010
10101001111
1100111
1100000101
1101001111
11011110
1001011
101000
101001
11101111
1110101101
11110010
1111111111000011
1111111100110111
111001000
1111110011000101
11001001
10111000111
100001111
10010110
100010001010
11001001100
110111111
1101000110
10011000010
110000000
1111110011100101
11101
1110100100
1111000011
1111111011110100
100011100
1100010111
1111100
1111111111001010
0
1111111111010010
11001010
10001110000
1110010
1111110111110110
10101010
101100110
11000101111
111001001
101111011
10111001001
10010001011
1010101111
1110110101
11100011011
111010000
10001011111
1101100010
1111111010111111
100110011
10010101000
11010100010
1111111101111001
10010101
100010011
100011
10001
101100
101010
101010110
11000111
110100111
1111111110011110
1111111100010111
1110001111
1110100100
1111110111001000
1010001010
1111110011000001
1111111101011001
100100111
1111110111110111
1111111111001111
10000001
1111000010
1111010110
1010001000
101001001
101101011
110000001
1110000110
110010100
110001010
10101
1111
1111111111101010
11110
10101010
100110111
1001010000
11111100
1111110100011110
1111111000010100
1111101111110100
1000011011
1111110111000111
1111110111111100
1111111011011101
110100100
1111111100100100
11100111111
1111111011110001
1101000100
11000001010
110000111111
10011101111
1111111110111110
1111111011001011
1000110111
100010101
1111111111100101
1111111111100111
1001
10001
110000
110111
111111100
1010111110
10100110101
1111111101110111
10001001
1111110000001010
1101110010
101101000
1111111111010010
1111101101010011
1111110110011000
1111101111110110
1111111101010011
1111101110100010
1111100101001100
1110
1111101110111011
1111110101011011
1111111001001111
11111
11010011
10010010
100111
1111111111101100
10001
1
1111111111111111
11
101001111
1010011010
1011110001
10000111001
1010100100
1100001000
1011110000
101010001
1100111000
1111110100100110
1101101010
10000110100
1111111100111101
1111111000101101
10
1000000
1111101110110110
1111111110100100
11111111
1111111110010000
1111111111110001
0
1
1111111111111010
1111111111111111
1111
1111111111111101
1111111111111100
1111111111000110
1001001
10001100
11110100
110000110
1010010001
10010001001
11110010101
1110000010
111101011
1100000100
1111111110011011
1111111100000011
1101110000
10000111001
1011001011
1110001001
11100001
1111111110111010
110001
1111111110101101
1111111111111000
1111111111010111
1111111111111101
111
1111111111111011
10001
1111111111111101
1111111110111100
1111111111111010
1111111111110101
1111111111100100
101110
11001000
100010111
100110000
1000011
110000
110011011
1111111100001101
1111111110111001
1010000001
1000101100
11011111
110010
101101
1111111111000101
1111111111111011
1111111111100010
1000
1111111111000010
11110
1111111111110011
1111111111100010
101010
10100
1111111111101000
11001
10101
11011
111
1111111111110011
101
1111111111111000
110001
11010
100011
1111111111011010
1111111111111010
1010111
1000000
1111111111010110
1010
1111111111000010
1000
1010
1
1111111111110100
1110
100001
10001
