1110
1111111110111101
1111111111101100
1111111111111001
1111111111011011
10100
1111111111100110
1111111111100000
1111111111011110
1111111111101101
1111111111100011
1000011
0
1111111111011000
1101
101
1111111111100100
11101
1111111111101111
111
1111111111100110
1101
1111111111100101
10001
1111111111110110
1111111111100101
1100
111100
1111111111000101
11101
1111111111110110
10010
1111111111110011
110
1101
1111111111111111
1111111111010000
1101
1111111110100010
10011010
110010100
10100101
111111
1011010
100010110
1010010
1111111111111001
1111111110110100
1111111110111100
1111111111101000
101111
1011
10101
1111111111111111
1111111111100101
1111111111111111
110001
1
1111111111011010
100010
110011
1111111111100001
1111111111000101
1111111110111111
1111111101101010
1111111001110000
1111111001000011
1111111100000101
10100111
101011100
1001
1111111110000010
1111111011111000
1111111101001101
1111111010001100
1111111011100001
1111111010001101
1111111101010000
1111111110011100
1111111110111010
1111111111000001
1111111111001110
1111111111111100
1101
11111
1111111111101110
1111111111111011
1101111
1111111111100011
1111111101011011
1111111101101011
1111111100000100
1111111010010110
1111110111100001
1111101111101011
1111100111000011
1111101011000010
1111111000100111
1111111001110110
101101
10001001101
11001001100
101110101
1111111101001101
1111111101110110
1111101011101101
1111110010100010
1111111001010100
1111111110110011
1111111111010110
1111111111110000
100011
10100
1111111110100011
1111111111100100
101110
1111111101011010
1111111010001100
1111111100000011
1111111011110100
1111111000101011
1111111011110111
1111110010001100
1111111100100000
1111111010001000
1111111011111001
1111111011010011
10010001011
11111000000
11000110111
1111111000001100
1111111100001101
1111111100011010
1111110000011101
1111111000100100
1111101111000111
1111101010111010
1111111001001011
1111111110101001
1111111111110100
1111111111101010
1111111111110100
1111111111110111
100110
1111111001000011
1111110111011010
1111111111011111
1111110111110100
1111111000001110
111000011
10000000001
111110111
1111110101001101
1111111101100111
1111111011011110
10010011101
11100111001
1101100110
101001010
1111111110101000
1111111011011101
1111111110100111
1111110110011111
1111111010111110
1111110010100001
1111111011010011
1111111101111001
1111111101100111
11100
1111111111101110
1111111111100001
10111
1111110110111101
1111111000111000
1111111110110010
1111111011001001
1111111011101010
1111110011011011
10000100101
101001001
1111111100100110
10110100010
111011101
1100111101
1111010010
11001010000
11010001110
1111101011
1010000111
1111001100
10011000000
1111111011000010
1111100011001010
1111110110110011
1111111011100111
1111111101011001
110110
1001101
110
1111111110110011
1111101111100010
1111101001100111
1111111000101011
1111111101011001
1111111101101111
1001111000
1111111001111001
1111111100011010
100111001
1010100100
10011100111
10000100010
10100000010
11000011001
10011111011
10100000001
1101011101
1011010011
11010000010
10011001
1111110001111100
1111110101010000
1111111001111101
11111
110
1111111111011111
1111111111110101
1111111010001000
1111100011001100
1111100010111111
1111101111111110
1111110011011000
1111110011111011
1111110110010101
1111110100110001
1111110001110000
1111111101001100
1111010011110001
1100000001
11011001100
100011000000
1110101011
11111111100
10110010010
1110110010
1100101000
1000010110
1111110010011001
1111011100100011
1111100001010110
1111111001100011
1111111110100010
1111
1111111111111100
1111111011001111
1111110101101100
1111100110010011
1111011101111000
1111100100101001
1111100111011101
1111111101000001
1111101101110100
1111110101010001
1111011001110101
1111110010011111
1111010001000011
1111011011010100
1101000000
110100010110
10100100111
11010000110
100110011000
11100010111
111011
1111111000111110
1111110010011110
1111101000100101
1111011110100110
1111110011011001
110
1011
1111111111111101
1100
1111110100110011
1111100010111111
1111011011100111
1111001100111000
1111010111111010
1111101010001000
1111010010100110
1111011110001011
1111101110010111
1111010011110010
1110111101110100
1111001111001101
10000101000
101100111011
100110001110
11111100011
1011110000
11001101101
101000001101
10100101000
101101100
1111110001100000
1111100001110111
1111110101111110
100010
1111111111101100
1111111110101010
1111111101000000
1111110011011010
1111100011010001
1111001011110101
1111010010101001
1111011110000000
1111101001100110
1111011010011101
1111110100111000
1111011011101101
1111101011100001
1111101111111001
1111100001110000
1111111100011100
1111111100011110
101010001
111001
100110111
10111110110
10000110110
10111000011
10111100100
1000010
1111101010100101
1111110111010101
100
0
1111111110001100
1111111011100110
1111111001110101
1111110010001110
1111100111000110
1111111101111110
1111101010101101
1111111010101000
1111111111000101
10010010010
1010110
1010101100
1111111100010011
1111011101111011
1111101000010001
1111111010001110
1111110011100100
1111110010110010
11001010000
10001101000
1100000001
101000011001
10010010111
1111001101
1111110110111111
1111111001000010
0
10101
1111111110010111
1111111110110100
1111111111010111
100010110
1000001110
10010100000
10000001001
110101010
1110001
1011001000
111111100
101001011
1111110111001001
1111100101110011
1111101001101010
1111110111001001
1111111101100101
1111110011100100
111
100110111
1000111111
101001111
11010011
1001001001
1111110101111100
1111111011110001
1111111111101000
1111111110011100
1111111110111001
1111111110101101
1111111110011010
1111
1111001011
11110000010
101000011011
111010010
1111110000111011
1111111011101100
111101111
1110110011
1111100001100011
1111111011101110
1111111000001000
1111110101000100
1111110011010001
10010011
111011
1111000110
10110010001
1111111111000110
101001000
100000100
1111110100100111
10000001
1111
1
1011
1111111110110110
1111111111111010
1111110110000001
110010100
1111111010011000
1000010100
10010111
1111110010010100
1111111011000011
1111110100100111
1111111000010100
1111100000001111
1111010011011100
110001111
1111110110010101
1111101110100110
1010100111
1111110010011100
1111111001001001
1110001110
1111111110110000
100101010
10010
1111111010010000
11001111
10010
100100
1111111111101100
1111111111001100
1100111
1111110100100001
1111111101111110
1111110111110111
1111110100001010
1111110011101111
101111
100111110
1111111000010010
1111111111000001
1111101111000011
1111101010110000
1110100110
1111101001110011
101100001
10010010110
1111111111111101
11110011
1111111000111111
1111110100001100
1111101011110111
1111111100001110
10110101
1111110
1011111
11001
0
1111111110101100
1111111101110100
1111110011111110
1101011000
10100010
1111111011001100
1100010101
1111101000001101
100010011
1111111010111001
1111110101001111
1111010111101001
1111101010001101
1111111010111011
1111101111111000
11111110
1111111110011111
1010111000
1111111010011111
11110011
1111011010
1111111000111111
11101001
1100101111
10001111
101101
10100
1111111111111000
1111111011111100
1111111101001110
1111111100001111
1011101
1111110000001001
1111111100101011
1
111101100
11010000011
1111111001
1100000001
1111101110000111
1111100000100010
1111111100100100
1111110110000001
111010011
1111110100110001
1001
1111111110111000
100100100
1111011001
1111111001111101
110010001
1101111011
10101110
10110
10110
1111111111100000
1111111001110011
1111111100111001
1111111000100011
1111110010100010
1111110111011111
1111111010110001
1100111000
10001011001
111000101
1011011111
11001011111
1111111001110110
1111100000110010
1111110110010100
1111111000100111
1111111100110010
1111110000000000
1111110010000001
1111111100100010
1111111101000011
1111110111000101
1111111110110110
111000101
111000110
1010101
0
10101
111000
1111111011110001
1111111110011101
11100
1111111010110001
1111111000001100
1111110011110110
110101010
10001110
10100101111
10100001111
11100101100
1111111111000001
1111110001001011
1111101101010000
10001011
1111110101100011
1111110011000001
1111110001100000
100010101
1111111110110000
1111110111100101
101110
1000011111
11010100
1000001
1000
1111111111011110
10110
1111111111101010
10010011
1111111101100011
10111110010
1111000100
10100011101
1111101010100001
1111110011110000
1111111110010001
1111111001111110
10100010010
11110110010
1111110011011001
1111110100110010
11010101
1111111010001100
1111110010101010
1111110011001101
1111111110110111
101100000
1111111100100100
111010011
10011101011
11001101
11000101
100
1010
110001
1101010
10101011
1111111010111011
10001110101
1111001110
10010101
10010001101
1111110110001010
1111110111111001
1111111010011011
1001101110
1000100010
100111
1111101111000001
11100
100010
1111111000010010
1111111011100111
1111110110111011
1111111101000110
1111111111010001
1011001100
1000101101
10110
1010010
1111111111110101
10000
1111111111011101
1111111111101011
1111111100100111
1111110101010001
1001101
1111111001110110
1111110010011111
1111101100000101
110000011
110011010
10111110110
10000010111
110110010
1111000
1111110111000011
1111101010000101
1111111111001001
1111110110000110
1111110001010011
1111011010010000
1111110010000010
1101101
1111111100101000
101100100
1111111111101010
101010
1111111111110111
1111111111001100
1111111111111110
1111111111010011
1111111111011100
101100
101111001
10010110
1111101111100101
1111110011011010
100011100
11100011
1111110110110000
111100111
10000110001
1111100100
1111111010110011
1111101111110100
1100010
1111110001110100
1111100110000011
1111100010011000
1111110111001101
1111111010110011
1111110110000111
1111111110011110
1111111111110001
11001
1111111111101010
1111111111001100
11110
1111111111110110
1111111111111011
100111010
10011110
1111110110110110
1111101010111111
1111111110011100
110100
1111111010101100
1111111011101010
1001011110
100101101
1111110111011001
1111101111000001
1111100111101000
1111100100011000
1111100101001110
1111101011000110
1111101111000010
1111111000010011
1111111110010110
1111111011100110
1111111110101010
1111111111011111
11000
1111111111011101
1111111111111111
111100
1111111110111111
0
1111111111100101
1111111000010000
1111111000010001
1111111101001000
1111111101101101
1111111010000001
111110
1111110111100110
1111110100000001
1111110011010001
1111111011101111
1111100
1001110
1000001
1111111110001100
1111111110011100
1111111110011111
110
1100001
1111111111000101
1111111111011000
1111111111100111
101000
11
0
111101
1111111111101111
10011
11110
1111111111011000
110
1011011
1000010
10100
0
1111111111000101
11
1010
101101
1001
10110
10100
1111111111111011
110100
100
1111111111101000
100101
111000
1111111111111111
111
100110
100101
