1111111111101000
1000
10000
1111111111110101
1111111111100000
0
1111111111011111
1111111111011101
111001
1111111111111000
1111111111110100
11001
101
1111111111111110
1111111111111101
11
1111111111111000
1100
11111
100101
1111111111101111
1111111111100100
1111111111011101
1101
11010
1111111111010011
1111111111100001
1111111111011001
1101
11000
1111111111111000
11001
10101
100111
1111111111101001
1111111111100000
1111111111011101
111
1111111111101011
111010
10001
11
101111101
1100110101
1010101
1111
1111111111100011
1000
1111111111010110
1111111111101100
1111111111101011
1111111111010111
10101
100
1111111111110111
1111111111000011
1111111111101111
111110
110011
1111111111010000
1111111111111111
11111
1111111111010101
1110
1111111101001011
1111111001001110
1111111100110000
1111111111011001
101010
1010101000
11000010
1101110100
11101101
1111110111010110
1111110110011110
1111111111101011
1111111111000010
1010011
111
1111111111101001
1111111111100010
11111
1011
1111111111101000
1111111111110110
1111111111100100
1111111111000011
1111111111011110
1111111110111101
1111111111110000
1111111111111101
1111111110000100
1111111000001101
1111101101001011
1111100111111001
1111100100010000
1111110011000110
1111101001100010
1111100011001100
1111101111001011
1111101110110110
1111101111101100
1111101000111010
1111111100000010
10
1111111011100100
1111111000000100
1111111010101000
1111111110011010
11110
101110
1111111111111010
1111111111010111
1111111111111100
1111111111100100
10011
11
1111111111000110
1111111111010110
1111111110000100
1000000111
10111011
1111111101100100
1111100100000010
1111100001100000
1111111010101011
1111110001101000
1111101001001001
1111111101011000
1111110110110110
1111110001011011
1111111000110101
100110111
1111111100100101
1111111011111010
1001101110
1111111100101001
1111110111001101
1111110111101100
1111111101100100
1010110
1111111111010001
1111111111001110
1111
1111111111100000
100100
101000110
100110101
1111111100000001
1111100000000010
1111011111011110
1111010110010110
1111101000100000
1111110000110100
1111100011110101
101101
1111010001110100
1111011100011111
1111101000011101
1111100010011011
1111110010101010
1111111010100110
1111111001100010
1110101001
1001011011
1111101101111100
1111111100110101
1111111111010011
1001011
1
1111111110001111
100
1111111111101111
1111110001100011
1111101011111101
1111011101011111
1111010110011111
1111010101000100
1111110111111100
1111110011100001
1111011000010100
1111011010000010
1111111110000101
1111101110011011
1111101111101011
1111101011110111
1111111110010101
1111110011101111
1111111001110101
1111110101110110
1111111101110001
1001100010
1101010
1111110011111011
1000001
11100
11110
1111111111010011
1111111101000110
1111111110011010
1111111010110011
1111101001001010
1111011110100011
1111001111010111
1111000010001100
1111011100010000
1111111101111101
1111110000011000
1010101
1111110101001000
1010010000
1111011100001000
1100
1111101100111001
1111110011011010
10110001
1000001001
1111111010100111
1101110111
1110110111
11100011
1111111111000111
1111111111101011
1111111111001100
1111111110101101
1111111111100101
1111111110001011
1111111111010110
1111111011101101
1111110000100100
1111100110111010
1111011011011100
1111010111010110
1111011111011111
1111110101010011
1111101011010101
1111110110001010
1111111111010101
110100011
1111101101000001
1111010100100101
1110101111
10011111
1111111010100001
1111110000101011
1111110010011001
10011011000
101001001
10110001
100010001
1111111110110010
1000110
1111111111010001
101111
1111111111001011
1111111110101110
1111111010001001
1111110000100010
1111100100100111
1111011101101111
1111100111101011
1111100000101100
1111110110000011
1111110011110000
1111101011011011
111100110
100001100100
10000111101
11000010
100110100
1011000
11010011
1111101000100100
10010001
1111111101100111
1111110110011001
11010100
1111111111000000
110011
11110011
1111
101101
1111111111100100
1111110111010101
1111110100011101
1111110010000100
1111100010100011
1111100100100000
1111110011001110
1111100111000001
1111111011010111
1111110110010110
1111111000110111
10011101100
100011110001
100101011010
1101011011
110110101
1111100111101010
1010100010
1111110101011100
1100010000
1111111010100110
101101111
10011110000
10010101001
100100101
111100
1111111110111111
1111111111100010
1111111110111011
1111111010000111
1111110110011001
1111110101111111
1111100110010110
1111101011000110
1111111100001100
1111100110110101
1111111110010101
110000010
1111100110
11001110100
11110000000
11001100011
1101000001
1111111001101100
1111101110110110
1111011111110001
1111110111101100
1001000110
1111110000000010
1111111010101100
11000011
11011100
1111111000100111
1111111111011001
1111111111111011
1011
1111111110001101
1111111100111000
1111111000011101
1111101111011100
1111101110110011
1111111000011110
1111011110
1111111110001111
1
110001110
10001000011
110011101111
100101001101
11101100010
11101011100
1111111111010111
11010100
1111101001000111
1111011001101010
1111100010111100
1111011101110100
1111101010010100
1111111000010100
1111111101101111
1111111011110001
101111
1111111111000010
110
1111111101101010
1111111111000011
11110011
1111110011101001
1111110001111101
1111111010001011
11101110
1111111001110011
1001110100
1111101111
11111001111
11000001100
10101110100
1010000101
10110000000
101110100110
1111110100010111
1111100010110100
1111001111111101
1111011101010101
1111101000101111
1111101110000100
1111110100001010
1111111001100010
1111111110000110
1111111110110001
1111111111111110
1111111111110111
1110
10000011
10000110
1111111000100100
1111110000111010
1111101011100100
110101010
11100110
10000010000
10001100
1000010101
10100000
1011100011
1111111011111010
10011101000
11011110
1111101010010010
1111011010011000
1111011011001110
1111100011100001
1111101000011110
1111110000010110
1111111010101101
1111111001111110
1111111100100000
10100
1111111111011110
1111111111000010
1101010
101
1111111111011110
1111111010111100
1111101110101111
1111101000000110
11111010
1101100
1111000
11
1000001101
11011000111
1010001101
100000101
1110011101
10011100
1111100110001100
1111011000111111
1111011111011001
1111100101101111
1111101001100010
1111110000010111
1111110011101001
1111110101110001
1111111100101001
1111111111100010
111
101101
1111111111000100
1111111110101001
1111110
110001101
1111110101010101
1111101100000100
1111110101011111
1111101011111000
1111100111010010
10001000
1111111000010101
10101111101
101101000
1111111100000010
1110011001
1111011111011000
1111100100110111
1111101000000011
1111110100011110
1111110011010111
1111110000111010
1111111000000111
1111111010010001
1111111010011010
1111111011110011
1111111111111001
1111111111010100
1111111111111101
1111111110111100
1111111100101110
1000111
1101000000
1111111111111010
1111101001100011
1111101000100100
1111101110111000
1111111110100000
1111110100011000
100000000
11100100100
10111100001
1111110111001101
1111101010110000
1111011001000011
1111101000010000
1111111000010111
1111111100100011
1111110110010101
1111110110001010
1111111011111001
1111111011011100
1111111111001011
1111111110011111
1111111111110111
1111111111011010
111001
1111111111101101
1111111010000100
1010
1111111011110010
1111111010001000
1111110011110010
1111110111111011
1111111110110111
1111111001011000
1111111110001100
1111111110100010
1001011111
1110000101
1010110
1111011001010100
101110100
1001000011
1111111000000010
1111111010101010
1111101101101000
1111101000100111
1111110110110010
1111111010100001
100101000
10001001
10110011
1111111111100101
1111111111111000
1111111101000011
1111111001101110
1111110101011010
1111101101111101
1111110001111111
1111111100010010
1111111110001100
10000000011
1111101001100101
10001111000
101110011
11000010010
1111111101101110
1111111011111011
1100001011
1111110111111101
1111111111001100
100000111
1111111100101011
1111100111110100
1111100011011010
1111110110111111
1001110
10010110
1111111111110111
1101001
11110
111000
1111111001110000
1111101100011110
1111101110001001
1111101001011110
1111110000111001
1111110000111010
101101110
110001100
1111101010010011
1111000
100011111
1111101110110000
10010111
10100111001
11101010101
11100
11101001000
1010101110
1000010
1111011101001110
1111100000101100
1111110110101000
1000001110
11010101
10000
1111111111110011
111
101010
1111111100010000
1111110111110101
1111110110100011
1111111101001011
1111101101011010
1111110010010110
1111110000101001
1111110101100001
1111111100010010
1111110110010001
1111110001111101
1111100110010100
1111111001111110
1111111011110100
1111101010111111
1111110010010110
1000111100
1111110010101011
1111111011011101
1111101100001000
1111101011100000
1111111010100101
101100111
1010101
1111111111101110
1111111111101001
1111111111111101
101100
11000
100011100
100011110
1110010011
1111111101010101
1111110110001110
11100001
1111110010000001
1111110000110011
1111011100110000
1111101101101000
1111101111010011
1111100101010000
1111100101111111
1111110101000001
111000010
11000110000
100111000
100100100
1111111011001011
1111111010000111
1111111
1011010
1111111110101111
10110
1111111111110010
1111111111011001
1111111111100001
1111111111100011
1111111010111100
1111110111000100
1110000010
1111111101110001
11000010
10010010101
1111110011111101
1111110111111100
1111110110100100
1100101100
1111100010111001
1111101010000111
1111110001100000
1111110100001010
1111101111
10000100
1011011010
11010011
1111110011111011
1111110111111011
1111111111010010
1111010
110110
1111111111111110
1111111111010000
1111111111111110
1000
1111111111111011
1111111101100100
1111111100111100
1011101
1111111010000110
1000100110
10111110
1111101111111111
1111111101100010
1111100101101111
1111100101100010
1111101110010000
1111111011110110
1111101101101110
1111011101011010
1111111010110101
1010110001
10101001000
1011001101
11001100
1111111100010110
1110011
1111111111111111
101011
1111111111011100
101110
1111111111111110
1111
110001
1010110
100111010
101110011
1111111100010110
0
1111011010
1111111011101001
1111011110110111
1111101111011101
1111101100000001
1111110110111000
1000100111
1111101100111101
1111101101010110
1111111010111011
1111111101001001
1111111001001011
1010100
11011011
10111000
1110010
101111
110010
101101
1111111111100101
1000
1111111111110001
1111111111111001
1111111111111110
11011
10011011
110101010
100011010
1111111011110110
1111111110011101
1100
1111111111000010
110011
1111110010000011
1111111001011100
111101100
1100011
1011001
1111111111011110
1111111101000110
1011
0
1111111111110101
1001
1111111111111100
101101
1111111111111100
1110
10101
1111111111100011
1111111111010111
10000
10010
1111111111111000
11101
10
1111111111110000
1111
10101011
111111
11111
10011
101110
100011
1111111111110011
1111111111111110
1010010
101
1111111110100010
10100
1111111111111100
1111111111111010
100111
10110
10010
1111111111000101
