101100
1111111111111000
1111111110110111
1111111111001000
101010
10011
1
10100
1111111111000101
11
1111111111010110
1111111111111010
10100
1111111110110110
1101
1111111111110010
10001
1111111111111110
1001111
111001
1111111111111111
1111111111111001
111000
1001
1111111111100101
1001
1111111111001111
11010
1111111111101111
1111111111101111
100100
110
101100
100
1000
1010010
1100111
10001
1110
10010001
11010
1111111111010010
1101100
1111001
10100
1111111111100110
1000010
0
1010
1101001
10000110
100100
110110
1111111111110100
1010010
1111111111100111
1111111111100100
1110
1111111111011111
11
1111111111011111
101101
10010
1011110
10011000
1111111
101010110
1010110
1000000
10100111
100010111
101101011
101001011
100010001
11110000
1011111
1110000
111110
10100000
1011000
1100
1000
100110
1011
11011
10011
1111111111110001
10011
1111111111110011
1111111111110000
10100011
11010001
11011100
100101100
1010111010
1111110001
10001010100
11001011011
100000110001
100010110001
10010001011
11001011
11111110
10001111011
1001000011
110101100
101001011
10000010
110010
10010
11001
10011
1111111111010111
0
1111111111010001
1111111111100111
1001101
1111111111001011
1101100
10010011
1101110
1010010110
11101111000
11110110100
100001011110
101110100011
111010010100
101101101001
111101000
11100111101
1111100100
1111110110100010
1111110011100010
1111101100111010
1111101110101100
1111110000110100
1111111011110101
1010010111
1001101011
1111010
100001
1111111111111000
1111111111100100
10110
1011001
11100010
111110010
100001100
1010100
1111111101001110
10001111011
1111110
1101111111
11000000000
11010000011
101010110
1011110011
100001001100
101101000
10110111110
10000100000
111010000
1111110111101001
1111110010001000
1101000
1110100110
11100101
110101
1111111111110010
1111111111010011
1110000
1111111111001011
101
101
1111110101110010
1111101111010101
1111101011111110
1111110001001101
110101011
1111110101110010
1111110101001101
111000100
101010011
1111111100011110
1111100010010010
1111101110100110
1111011011100011
10101111101
111101101
10
111001010
110010100
111100110
1010011111
10011
1111111111111001
1110
10110
101111
1111111001100101
1111111100111110
1110111001
111001010
1111110100101001
1011101011
1111111010100101
1111110000110011
1001101100
1111111100011011
1111111111110000
10000001100
10001100011
1111101011010011
1111110010101011
1010000011
10001001
1111111000101111
1111111011101100
1001101011
1111110011010111
1111111101001110
110101
10101111
1011001
1111111111110110
1111111111001111
111001
1111111100001001
10100
10101000
10101010
1111110011101111
1111011111001010
1111101000000100
1101111000
10001110011
10110001
100100000101
100011100100
1111101110100000
10010011
1111110000111101
1111101001000000
10000010
1001100100
1010011
11110001
101010011
10101011101
11100011
100001110
110001
0
1111111111010011
11001001
1111111110010011
1111110011111110
1111110100001010
1111101100010010
1000110111
101011011
1000111000
1111110011111100
1111101101111111
1111101010000011
101100000
1110010111
1111101010111011
1011001000
1111110001010000
1111111000011111
1101111100
1111111101111000
110001111
111110111
1010111101
1011000110
10111110001
1011001010
1111111110010010
1111111111010110
1111111101111011
1111111111000011
1111111100010011
1111110001010000
1111110010111010
1100011000
1000111011
1111110010000101
1111101101010010
101110
100100111
1010010001
1100010000
101001110
1111101010010101
1111111100011100
1111111100010000
110101000
1010110100
1111001111
10010011100
1010010001
11011100111
10111100000
10110101001
111111010
11000
10000
1111111111101000
1111111011011111
1111110101111011
1010101
10100000001
110101001
1111110001111111
1111110011011000
1111101111100000
1111101110011010
1111100010110010
1111111000100101
101000011101
1111110001100011
1111011001010011
1111101001100101
1111011110100001
1111110001001011
1111111010110110
1111111101100101
111000001
11001001110
10111111101
11000010001
10000010100
101111010
1000011
1011
1001
1111111011110110
1111111100010001
1111111001001110
10111100001
1111110011011101
1111100000001000
1111101101111001
1101101
1111111000101101
1111101110011100
11101001101
10010100011
1111110000001001
1111001011000101
1111011110001100
1111100011011000
1111011001101001
1111011101111101
1111111011010100
11011101
1100
11001011111
11110100111
1011100100
1111111111110011
1111111111001111
1111111110110111
100101
1111111101010100
1111111100001011
1111100101011000
111001101
1111111111000001
1111100101110010
1111110111001011
110011001
1111100111001100
1111111000000000
11001011011
1110100000
1111010111100001
1111011101110110
1111110011101110
1111100100010100
1111100101011110
1111111101100101
1111110010000101
1111111000100001
111100100
100000111001
11010110011
1001001000
101101000
1111000
1111111111111101
1111111111000011
1111111101111110
1111111011010010
1111110000110101
1111110101100100
1010110011
1111111111010001
1111100111100100
1111110000000111
1110
111100111
10010011
1000011010
1111101011100001
1111011101011110
1111110010001000
1111110011100011
1111010100011010
1111011110011011
1111100001010110
1111111100100000
101011000
1111111010101110
1001100011
101100011
11010110
1111111111110111
1111111111001111
10110
10001
101110111
1111111111001011
111000100
1111000011
11101011
1001101
1111111111101010
1000001100
1010011
1010001100
1000011
1111111010000101
1111101010101001
1111110100011111
1111010000001000
1111001100010011
1111110011001000
1111111001110100
1111101110010000
1111110011001000
1111110100001110
1111100010
1101111100
10111011
1011101
100000
1011
11010011
1110000110
1000100111
1111111110
1111100001
1010010
1111110101101000
1010101000
1111111000100101
101000110
10101
1111111001010101
1111100110000010
1111100011000011
1111101110100100
1111100111000100
1111111001110011
10010011000
1001000100
1100011001
10100101111
11000111010
100010001110
10001100101
11001000
11100
1100
1111111111010111
101010110
1111101101
10011000111
10010100000
11011100101
10011110010
101000111
101000010
1010010100
10001001100
110110
1111111101110000
1111110110011001
1111101000010110
1111111000001010
1101110
1111110001011111
1010100111
1010010111
1111111001011111
1111110111
10001110000
11001111011
1110000
1111111110001101
100110
1111111111110111
1111111111010100
1001000
1001111001
10000101010
100101110010
1000001111010
110110101011
11001111000
11110010111
10101010101
1010011011
10111010000
101011100
1001110001
1011101011
11001111000
1101100100
10110001101
100001101000
110010011011
10101010010
100011111010
110011110101
11001000101
110000110
1111111100111011
1111111111100101
10000
1101
1111
1101101
1111100010
101110000011
101110001100
11001001011
11000010101
100101101100
100011110000
11001111111
101010101010
100010110111
11011000011
10110010010
11100101011
11110011010
1001100001000
100100011010
110000011100
100001010101
101110110100
100110101000
10101001001
101110011
1001110
11
1111111111110001
10011
11000001
1110000
1111011111
11001110000
10001110010
100001001010
11001010011
11001011000
10100000000
10101011100
100011111011
1111011101
1110101110
10100101100
10110011001
10111011111
100000100100
10101001110
100110010111
10000110110
1111110101
10011101001
1010111100
1111111111100010
101000
1111111111101010
11010
10100
100110010
1001100001
10001010001
1100011010
1101111111
1001110100
100001010
1111111000111011
1111100111001010
1100100110
1110011100
10101110100
11101111111
100100001111
1111111110011010
11110000101
1111111100101010
1010010110
1111110111110111
0
1110111111
1100100110
101100000
10010111
101110
1111111111101100
111000
1111111111101010
11111101
100110100
1111111110110001
1111111100100101
1111110011100011
1111111000001011
1111110110000001
11001001
1111111001100010
101000110
10010110000
1000011011
110010101
10100000
11011010
1111111100001010
1011000100
10111000001
10000001000
100001100101
1111101111
101000111
1110000
1101000
1111111111011001
1111111111100111
1111111110101111
111
10010101
100010011
10000000
1111
1111111011000000
1111110000101111
10001110010
10100110101
10001100
11011000011
11001111
1001110001
10010000011
11000011010
10010101000
100000101101
11110111000
1010110111
10101010110
11110001100
110101010
100111001
110111
100001011
1111111111011111
101000
1111111111010000
1111111111101001
1111111111001110
1111111111001000
1111111010010110
1111110010000011
1111111100110111
1000100101
1111111011111110
10111110100
1000001110
11000110100
101101000011
10110010101
10110100101
1001101110
1011100011
111110101
1101000001
10111100110
10111001000
10111001111
10010001001
100000010
11101010
10111000
110011
1111111111101000
1111111111111110
1111111111100111
111111
1111111110111110
1111111101011100
1111110110101110
1111111101100111
111011010
1011111
1111111110
11100110000
1111111111010000
1110001100
10010101000
1111111101100000
10010001010
111000101
1111101110
10100111
1111100111
1001111011
1001101001
1010010100
1111111101010011
10001
1
1011
101000
10000
101
110110
1111111111100010
100000
1111111101110110
1111110011001010
1111110000111100
1111110011001010
1111110000011100
1111110011001011
1111111001100100
1111111100100101
1111111010101001
1111100111001101
1111110010101111
1101010
10110111
1111111010101011
1111110111001100
111011
1000000110
100110011
1111100
1001
1111111111110001
1111111111011001
100101
1111111111101111
101010
1000100
1111111111100010
1111111111101000
110101
1111111111001110
101001
10011
1111111110111111
1111111111001001
1111111111111000
1111111110110100
1111111110001011
1111111100000100
1111111101101101
1111111101011110
1111111101011111
1111111100101100
1111111110011111
1111111110110011
1100
1111111111111101
11111
1111111111110101
11010
100011
1111111111111101
