100100100100
100001001111
1011101001100110
1101000000011111
1111110000001010
1101101001011100
1110011111110000
10010001101111
111010101010
1111111111111000
1101101000110100
100000011011
11011101000000
1110011010010100
10100000000
1100011110000010
1001100110100
101000100110
1101001101000101
111110000101
