1010101101110
1011110111010
1110101010110111
1111000110011111
1111100010111111
10010000111011
1111011110010101
1011111111101111
1101000010000
101111111110
1110001101110111
1110000100010011
1111100001000011
1011100000010
1110101101011100
1110100011000001
1111101000011110
11011000111
100000010100
11000101101011
