1110011011011110
1110010110100101
10001101111
1011111100
1111110000000110
1010010001010
10000110100100
1110111101110000
101100000010
1111100011011111
111100000111
100110010110101
1111000100001100
10010110001100
1111001001011001
1011010100100
1001001100
11010111000
1000000010101
1101001010001101
