1111111001111001
1110101001101111
10010101010101
1110111100111110
100000111101
1101001100011001
1111101101011110
1111011010111001
1110001010111001
1100010000010001
1011111001011
1001111010110
1001101001001
1110100000000100
1111011110100010
1111110010011101
1111011001001111
11100111010000
11010101010000
1110110110001110
