1111010010000100
1000010101100
10101101110000
10011110101100
1111101011100101
1110101100000100
111001111011
1111011001110111
1111000011111100
11111010010110
1111111100010111
1001110100100
1010000101101
1101011111111110
1101111001010
1110100001110000
1011000001
1100111110001001
11000111011
1101111110010111
