1101010100010100
1110011101111100
1101000001
10000011111000
1110001100010011
1111111000110001
1110001100101110
1011010101110
10111101011
1111111110000101
1101111001100
1110110110100110
1100001011001
1111111101100000
10011110001010
1111001100000111
100001011111
1001111010
1111001111100
101110010100
