100000111110011
1100110010101001
1111111111110011
10001000111
11010010110010
1100111001001
1010100101011
1111010011001100
11000010
1111000000010000
1000111100
1110001010111011
1111010101001111
11000011111100
1111001111010001
1111000001010010
1110001000100111
111000111
1010010000101
1100111101111
