1011101000110
1111000011000110
1011011101
1110001100001011
1111101011000100
1111011000110101
1100011100111101
1001000010110
100010011100
1111000000011001
1011001000000
110000001010
100000000110
1111101111000110
1110001111
1011111
10110010101100
1110011011011001
10001111111
110011101000
