1110101110000101
1110010111010101
11111100011
1111111111100010
1110010111011101
1110101001000010
1110000010111101
1110100110101101
1101010010000000
1111101100110110
1111111100000000
1110100111001011
1110010011010110
10011010011110
1110000111110001
100011011000010
10011100000100
1110111111001
10001000101
1110110111011
