1101100000100010
1100101000
1101000110101
101101100010
1101111110101100
100110010111001
1101111010100101
1100101100010
100001111000010
1111000100100000
1011010010000
1111110101111111
1100110111011100
1001100011011
1110000101100
1110111001001001
1111100010100111
1110111100010000
1111111010000100
101100
